{
  "version": "1.0",
  "truncation": null,
  "padding": null,
  "added_tokens": [
    {
      "id": 0,
      "content": "[PAD]",
      "single_word": false,
      "lstrip": false,
      "rstrip": false,
      "normalized": false,
      "special": true
    },
    {
      "id": 1,
      "content": "[UNK]",
      "single_word": false,
      "lstrip": false,
      "rstrip": false,
      "normalized": false,
      "special": true
    },
    {
      "id": 2,
      "content": "[CLS]",
      "single_word": false,
      "lstrip": false,
      "rstrip": false,
      "normalized": false,
      "special": true
    },
    {
      "id": 3,
      "content": "[SEP]",
      "single_word": false,
      "lstrip": false,
      "rstrip": false,
      "normalized": false,
      "special": true
    },
    {
      "id": 4,
      "content": "[MASK]",
      "single_word": false,
      "lstrip": false,
      "rstrip": false,
      "normalized": false,
      "special": true
    },
    {
      "id": 5,
      "content": "[RECIPE_START]",
      "single_word": false,
      "lstrip": false,
      "rstrip": false,
      "normalized": false,
      "special": true
    },
    {
      "id": 6,
      "content": "[RECIPE_END]",
      "single_word": false,
      "lstrip": false,
      "rstrip": false,
      "normalized": false,
      "special": true
    },
    {
      "id": 7,
      "content": "[INGREDIENTS_START]",
      "single_word": false,
      "lstrip": false,
      "rstrip": false,
      "normalized": false,
      "special": true
    },
    {
      "id": 8,
      "content": "[INGREDIENTS_END]",
      "single_word": false,
      "lstrip": false,
      "rstrip": false,
      "normalized": false,
      "special": true
    },
    {
      "id": 9,
      "content": "[INSTRUCTIONS_START]",
      "single_word": false,
      "lstrip": false,
      "rstrip": false,
      "normalized": false,
      "special": true
    },
    {
      "id": 10,
      "content": "[INSTRUCTIONS_END]",
      "single_word": false,
      "lstrip": false,
      "rstrip": false,
      "normalized": false,
      "special": true
    },
    {
      "id": 11,
      "content": "[TIPS_START]",
      "single_word": false,
      "lstrip": false,
      "rstrip": false,
      "normalized": false,
      "special": true
    },
    {
      "id": 12,
      "content": "[TIPS_END]",
      "single_word": false,
      "lstrip": false,
      "rstrip": false,
      "normalized": false,
      "special": true
    },
    {
      "id": 13,
      "content": "[NOTES_START]",
      "single_word": false,
      "lstrip": false,
      "rstrip": false,
      "normalized": false,
      "special": true
    },
    {
      "id": 14,
      "content": "[NOTES_END]",
      "single_word": false,
      "lstrip": false,
      "rstrip": false,
      "normalized": false,
      "special": true
    },
    {
      "id": 15,
      "content": "[VARIATIONS_START]",
      "single_word": false,
      "lstrip": false,
      "rstrip": false,
      "normalized": false,
      "special": true
    },
    {
      "id": 16,
      "content": "[VARIATIONS_END]",
      "single_word": false,
      "lstrip": false,
      "rstrip": false,
      "normalized": false,
      "special": true
    },
    {
      "id": 17,
      "content": "[QUICK_RECIPE]",
      "single_word": false,
      "lstrip": false,
      "rstrip": false,
      "normalized": false,
      "special": true
    },
    {
      "id": 18,
      "content": "[EASY_RECIPE]",
      "single_word": false,
      "lstrip": false,
      "rstrip": false,
      "normalized": false,
      "special": true
    },
    {
      "id": 19,
      "content": "[INTERMEDIATE_RECIPE]",
      "single_word": false,
      "lstrip": false,
      "rstrip": false,
      "normalized": false,
      "special": true
    },
    {
      "id": 20,
      "content": "[ADVANCED_RECIPE]",
      "single_word": false,
      "lstrip": false,
      "rstrip": false,
      "normalized": false,
      "special": true
    },
    {
      "id": 21,
      "content": "[5_MIN]",
      "single_word": false,
      "lstrip": false,
      "rstrip": false,
      "normalized": false,
      "special": true
    },
    {
      "id": 22,
      "content": "[15_MIN]",
      "single_word": false,
      "lstrip": false,
      "rstrip": false,
      "normalized": false,
      "special": true
    },
    {
      "id": 23,
      "content": "[30_MIN]",
      "single_word": false,
      "lstrip": false,
      "rstrip": false,
      "normalized": false,
      "special": true
    },
    {
      "id": 24,
      "content": "[1_HOUR]",
      "single_word": false,
      "lstrip": false,
      "rstrip": false,
      "normalized": false,
      "special": true
    },
    {
      "id": 25,
      "content": "[ALL_DAY]",
      "single_word": false,
      "lstrip": false,
      "rstrip": false,
      "normalized": false,
      "special": true
    },
    {
      "id": 26,
      "content": "[SERVES_1]",
      "single_word": false,
      "lstrip": false,
      "rstrip": false,
      "normalized": false,
      "special": true
    },
    {
      "id": 27,
      "content": "[SERVES_2]",
      "single_word": false,
      "lstrip": false,
      "rstrip": false,
      "normalized": false,
      "special": true
    },
    {
      "id": 28,
      "content": "[SERVES_4]",
      "single_word": false,
      "lstrip": false,
      "rstrip": false,
      "normalized": false,
      "special": true
    },
    {
      "id": 29,
      "content": "[SERVES_6]",
      "single_word": false,
      "lstrip": false,
      "rstrip": false,
      "normalized": false,
      "special": true
    },
    {
      "id": 30,
      "content": "[SERVES_8]",
      "single_word": false,
      "lstrip": false,
      "rstrip": false,
      "normalized": false,
      "special": true
    },
    {
      "id": 31,
      "content": "[FAMILY_SIZE]",
      "single_word": false,
      "lstrip": false,
      "rstrip": false,
      "normalized": false,
      "special": true
    },
    {
      "id": 32,
      "content": "[INDIVIDUAL]",
      "single_word": false,
      "lstrip": false,
      "rstrip": false,
      "normalized": false,
      "special": true
    },
    {
      "id": 33,
      "content": "[APPETIZER]",
      "single_word": false,
      "lstrip": false,
      "rstrip": false,
      "normalized": false,
      "special": true
    },
    {
      "id": 34,
      "content": "[SIDE]",
      "single_word": false,
      "lstrip": false,
      "rstrip": false,
      "normalized": false,
      "special": true
    },
    {
      "id": 35,
      "content": "[MAIN]",
      "single_word": false,
      "lstrip": false,
      "rstrip": false,
      "normalized": false,
      "special": true
    },
    {
      "id": 36,
      "content": "[DESSERT]",
      "single_word": false,
      "lstrip": false,
      "rstrip": false,
      "normalized": false,
      "special": true
    },
    {
      "id": 37,
      "content": "[VEGETARIAN]",
      "single_word": false,
      "lstrip": false,
      "rstrip": false,
      "normalized": false,
      "special": true
    },
    {
      "id": 38,
      "content": "[VEGAN]",
      "single_word": false,
      "lstrip": false,
      "rstrip": false,
      "normalized": false,
      "special": true
    },
    {
      "id": 39,
      "content": "[GLUTEN_FREE]",
      "single_word": false,
      "lstrip": false,
      "rstrip": false,
      "normalized": false,
      "special": true
    },
    {
      "id": 40,
      "content": "[DAIRY_FREE]",
      "single_word": false,
      "lstrip": false,
      "rstrip": false,
      "normalized": false,
      "special": true
    },
    {
      "id": 41,
      "content": "[NUT_FREE]",
      "single_word": false,
      "lstrip": false,
      "rstrip": false,
      "normalized": false,
      "special": true
    },
    {
      "id": 42,
      "content": "[KETO]",
      "single_word": false,
      "lstrip": false,
      "rstrip": false,
      "normalized": false,
      "special": true
    },
    {
      "id": 43,
      "content": "[PALEO]",
      "single_word": false,
      "lstrip": false,
      "rstrip": false,
      "normalized": false,
      "special": true
    },
    {
      "id": 44,
      "content": "[LOW_CARB]",
      "single_word": false,
      "lstrip": false,
      "rstrip": false,
      "normalized": false,
      "special": true
    },
    {
      "id": 45,
      "content": "[HEALTHY]",
      "single_word": false,
      "lstrip": false,
      "rstrip": false,
      "normalized": false,
      "special": true
    },
    {
      "id": 46,
      "content": "[KID_FRIENDLY]",
      "single_word": false,
      "lstrip": false,
      "rstrip": false,
      "normalized": false,
      "special": true
    },
    {
      "id": 47,
      "content": "[ONE_POT]",
      "single_word": false,
      "lstrip": false,
      "rstrip": false,
      "normalized": false,
      "special": true
    },
    {
      "id": 48,
      "content": "[SHEET_PAN]",
      "single_word": false,
      "lstrip": false,
      "rstrip": false,
      "normalized": false,
      "special": true
    },
    {
      "id": 49,
      "content": "[NO_COOK]",
      "single_word": false,
      "lstrip": false,
      "rstrip": false,
      "normalized": false,
      "special": true
    },
    {
      "id": 50,
      "content": "[SLOW_COOKER]",
      "single_word": false,
      "lstrip": false,
      "rstrip": false,
      "normalized": false,
      "special": true
    },
    {
      "id": 51,
      "content": "[INSTANT_POT]",
      "single_word": false,
      "lstrip": false,
      "rstrip": false,
      "normalized": false,
      "special": true
    },
    {
      "id": 52,
      "content": "[AIR_FRYER]",
      "single_word": false,
      "lstrip": false,
      "rstrip": false,
      "normalized": false,
      "special": true
    },
    {
      "id": 53,
      "content": "[GRILL]",
      "single_word": false,
      "lstrip": false,
      "rstrip": false,
      "normalized": false,
      "special": true
    },
    {
      "id": 54,
      "content": "[OVEN]",
      "single_word": false,
      "lstrip": false,
      "rstrip": false,
      "normalized": false,
      "special": true
    },
    {
      "id": 55,
      "content": "[STOVETOP]",
      "single_word": false,
      "lstrip": false,
      "rstrip": false,
      "normalized": false,
      "special": true
    },
    {
      "id": 56,
      "content": "[MICROWAVE]",
      "single_word": false,
      "lstrip": false,
      "rstrip": false,
      "normalized": false,
      "special": true
    },
    {
      "id": 57,
      "content": "[BREAKFAST]",
      "single_word": false,
      "lstrip": false,
      "rstrip": false,
      "normalized": false,
      "special": true
    },
    {
      "id": 58,
      "content": "[LUNCH]",
      "single_word": false,
      "lstrip": false,
      "rstrip": false,
      "normalized": false,
      "special": true
    },
    {
      "id": 59,
      "content": "[DINNER]",
      "single_word": false,
      "lstrip": false,
      "rstrip": false,
      "normalized": false,
      "special": true
    },
    {
      "id": 60,
      "content": "[SNACK]",
      "single_word": false,
      "lstrip": false,
      "rstrip": false,
      "normalized": false,
      "special": true
    },
    {
      "id": 61,
      "content": "[PARTY]",
      "single_word": false,
      "lstrip": false,
      "rstrip": false,
      "normalized": false,
      "special": true
    },
    {
      "id": 62,
      "content": "[DATE_NIGHT]",
      "single_word": false,
      "lstrip": false,
      "rstrip": false,
      "normalized": false,
      "special": true
    },
    {
      "id": 63,
      "content": "[FAMILY_DINNER]",
      "single_word": false,
      "lstrip": false,
      "rstrip": false,
      "normalized": false,
      "special": true
    },
    {
      "id": 64,
      "content": "[MEAL_PREP]",
      "single_word": false,
      "lstrip": false,
      "rstrip": false,
      "normalized": false,
      "special": true
    },
    {
      "id": 65,
      "content": "[HOLIDAY]",
      "single_word": false,
      "lstrip": false,
      "rstrip": false,
      "normalized": false,
      "special": true
    },
    {
      "id": 66,
      "content": "[SPRING]",
      "single_word": false,
      "lstrip": false,
      "rstrip": false,
      "normalized": false,
      "special": true
    },
    {
      "id": 67,
      "content": "[SUMMER]",
      "single_word": false,
      "lstrip": false,
      "rstrip": false,
      "normalized": false,
      "special": true
    },
    {
      "id": 68,
      "content": "[FALL]",
      "single_word": false,
      "lstrip": false,
      "rstrip": false,
      "normalized": false,
      "special": true
    },
    {
      "id": 69,
      "content": "[WINTER]",
      "single_word": false,
      "lstrip": false,
      "rstrip": false,
      "normalized": false,
      "special": true
    },
    {
      "id": 70,
      "content": "[SEASONAL]",
      "single_word": false,
      "lstrip": false,
      "rstrip": false,
      "normalized": false,
      "special": true
    },
    {
      "id": 71,
      "content": "[BUDGET_FRIENDLY]",
      "single_word": false,
      "lstrip": false,
      "rstrip": false,
      "normalized": false,
      "special": true
    },
    {
      "id": 72,
      "content": "[CHEAP_EATS]",
      "single_word": false,
      "lstrip": false,
      "rstrip": false,
      "normalized": false,
      "special": true
    },
    {
      "id": 73,
      "content": "[PANTRY_RECIPE]",
      "single_word": false,
      "lstrip": false,
      "rstrip": false,
      "normalized": false,
      "special": true
    },
    {
      "id": 74,
      "content": "[LEFTOVER_MAKEOVER]",
      "single_word": false,
      "lstrip": false,
      "rstrip": false,
      "normalized": false,
      "special": true
    },
    {
      "id": 75,
      "content": "[BEGINNER]",
      "single_word": false,
      "lstrip": false,
      "rstrip": false,
      "normalized": false,
      "special": true
    },
    {
      "id": 76,
      "content": "[NO_EXPERIENCE_NEEDED]",
      "single_word": false,
      "lstrip": false,
      "rstrip": false,
      "normalized": false,
      "special": true
    },
    {
      "id": 77,
      "content": "[CONFIDENCE_BUILDING]",
      "single_word": false,
      "lstrip": false,
      "rstrip": false,
      "normalized": false,
      "special": true
    },
    {
      "id": 78,
      "content": "[IMPRESSIVE]",
      "single_word": false,
      "lstrip": false,
      "rstrip": false,
      "normalized": false,
      "special": true
    }
  ],
  "normalizer": {
    "type": "Sequence",
    "normalizers": [
      {
        "type": "NFD"
      },
      {
        "type": "Lowercase"
      },
      {
        "type": "StripAccents"
      }
    ]
  },
  "pre_tokenizer": {
    "type": "Sequence",
    "pretokenizers": [
      {
        "type": "Whitespace"
      },
      {
        "type": "Punctuation",
        "behavior": "Isolated"
      }
    ]
  },
  "post_processor": {
    "type": "BertProcessing",
    "sep": [
      "[SEP]",
      3
    ],
    "cls": [
      "[CLS]",
      2
    ]
  },
  "decoder": {
    "type": "BPEDecoder",
    "suffix": "</w>"
  },
  "model": {
    "type": "BPE",
    "dropout": null,
    "unk_token": "[UNK]",
    "continuing_subword_prefix": "##",
    "end_of_word_suffix": "</w>",
    "fuse_unk": false,
    "byte_fallback": false,
    "ignore_merges": false,
    "vocab": {
      "[PAD]": 0,
      "[UNK]": 1,
      "[CLS]": 2,
      "[SEP]": 3,
      "[MASK]": 4,
      "[RECIPE_START]": 5,
      "[RECIPE_END]": 6,
      "[INGREDIENTS_START]": 7,
      "[INGREDIENTS_END]": 8,
      "[INSTRUCTIONS_START]": 9,
      "[INSTRUCTIONS_END]": 10,
      "[TIPS_START]": 11,
      "[TIPS_END]": 12,
      "[NOTES_START]": 13,
      "[NOTES_END]": 14,
      "[VARIATIONS_START]": 15,
      "[VARIATIONS_END]": 16,
      "[QUICK_RECIPE]": 17,
      "[EASY_RECIPE]": 18,
      "[INTERMEDIATE_RECIPE]": 19,
      "[ADVANCED_RECIPE]": 20,
      "[5_MIN]": 21,
      "[15_MIN]": 22,
      "[30_MIN]": 23,
      "[1_HOUR]": 24,
      "[ALL_DAY]": 25,
      "[SERVES_1]": 26,
      "[SERVES_2]": 27,
      "[SERVES_4]": 28,
      "[SERVES_6]": 29,
      "[SERVES_8]": 30,
      "[FAMILY_SIZE]": 31,
      "[INDIVIDUAL]": 32,
      "[APPETIZER]": 33,
      "[SIDE]": 34,
      "[MAIN]": 35,
      "[DESSERT]": 36,
      "[VEGETARIAN]": 37,
      "[VEGAN]": 38,
      "[GLUTEN_FREE]": 39,
      "[DAIRY_FREE]": 40,
      "[NUT_FREE]": 41,
      "[KETO]": 42,
      "[PALEO]": 43,
      "[LOW_CARB]": 44,
      "[HEALTHY]": 45,
      "[KID_FRIENDLY]": 46,
      "[ONE_POT]": 47,
      "[SHEET_PAN]": 48,
      "[NO_COOK]": 49,
      "[SLOW_COOKER]": 50,
      "[INSTANT_POT]": 51,
      "[AIR_FRYER]": 52,
      "[GRILL]": 53,
      "[OVEN]": 54,
      "[STOVETOP]": 55,
      "[MICROWAVE]": 56,
      "[BREAKFAST]": 57,
      "[LUNCH]": 58,
      "[DINNER]": 59,
      "[SNACK]": 60,
      "[PARTY]": 61,
      "[DATE_NIGHT]": 62,
      "[FAMILY_DINNER]": 63,
      "[MEAL_PREP]": 64,
      "[HOLIDAY]": 65,
      "[SPRING]": 66,
      "[SUMMER]": 67,
      "[FALL]": 68,
      "[WINTER]": 69,
      "[SEASONAL]": 70,
      "[BUDGET_FRIENDLY]": 71,
      "[CHEAP_EATS]": 72,
      "[PANTRY_RECIPE]": 73,
      "[LEFTOVER_MAKEOVER]": 74,
      "[BEGINNER]": 75,
      "[NO_EXPERIENCE_NEEDED]": 76,
      "[CONFIDENCE_BUILDING]": 77,
      "[IMPRESSIVE]": 78,
      "!": 79,
      "#": 80,
      "%": 81,
      "&": 82,
      "'": 83,
      "(": 84,
      ")": 85,
      "+": 86,
      ",": 87,
      "-": 88,
      ".": 89,
      "/": 90,
      "0": 91,
      "1": 92,
      "2": 93,
      "3": 94,
      "4": 95,
      "5": 96,
      "6": 97,
      "7": 98,
      "8": 99,
      "9": 100,
      ":": 101,
      "=": 102,
      "?": 103,
      "@": 104,
      "[": 105,
      "]": 106,
      "_": 107,
      "a": 108,
      "b": 109,
      "c": 110,
      "d": 111,
      "e": 112,
      "f": 113,
      "g": 114,
      "h": 115,
      "i": 116,
      "j": 117,
      "k": 118,
      "l": 119,
      "m": 120,
      "n": 121,
      "o": 122,
      "p": 123,
      "q": 124,
      "r": 125,
      "s": 126,
      "t": 127,
      "u": 128,
      "v": 129,
      "w": 130,
      "x": 131,
      "y": 132,
      "z": 133,
      "°": 134,
      "##e": 135,
      "##c": 136,
      "##i": 137,
      "##p": 138,
      "##8": 139,
      "##5": 140,
      "##m": 141,
      "##t": 142,
      "##h": 143,
      "##o": 144,
      "##d": 145,
      "##7</w>": 146,
      "##n</w>": 147,
      "##e</w>": 148,
      "##r": 149,
      "##y</w>": 150,
      "##u": 151,
      "##l": 152,
      "##s": 153,
      "##a": 154,
      "##k</w>": 155,
      "##b": 156,
      "##n": 157,
      "##g</w>": 158,
      "##s</w>": 159,
      "##g": 160,
      "##r</w>": 161,
      "##d</w>": 162,
      "##t</w>": 163,
      "##3</w>": 164,
      "##k": 165,
      "##f": 166,
      "##l</w>": 167,
      "##y": 168,
      "##v": 169,
      "##w": 170,
      "##4</w>": 171,
      "##6</w>": 172,
      "##z": 173,
      "##m</w>": 174,
      "##6": 175,
      "##5</w>": 176,
      "##j": 177,
      "##i</w>": 178,
      "##h</w>": 179,
      "##p</w>": 180,
      "##2": 181,
      "##0": 182,
      "##9</w>": 183,
      "##x</w>": 184,
      "##2</w>": 185,
      "##4": 186,
      "##x": 187,
      "##7": 188,
      "##1</w>": 189,
      "##9": 190,
      "##0</w>": 191,
      "2</w>": 192,
      "##1": 193,
      "##8</w>": 194,
      "##c</w>": 195,
      "##3": 196,
      "6</w>": 197,
      "##w</w>": 198,
      "##a</w>": 199,
      "##o</w>": 200,
      "4</w>": 201,
      "&</w>": 202,
      "##f</w>": 203,
      "°</w>": 204,
      "9</w>": 205,
      "=</w>": 206,
      "[</w>": 207,
      "#</w>": 208,
      "##b</w>": 209,
      "]</w>": 210,
      "##q": 211,
      "a</w>": 212,
      "1</w>": 213,
      "(</w>": 214,
      "%</w>": 215,
      "s</w>": 216,
      "?</w>": 217,
      "+</w>": 218,
      "t</w>": 219,
      ",</w>": 220,
      "'</w>": 221,
      "-</w>": 222,
      "_</w>": 223,
      "##u</w>": 224,
      "7</w>": 225,
      ":</w>": 226,
      ".</w>": 227,
      "!</w>": 228,
      ")</w>": 229,
      "3</w>": 230,
      "f</w>": 231,
      "5</w>": 232,
      "8</w>": 233,
      "@</w>": 234,
      "/</w>": 235,
      "##in": 236,
      "##es</w>": 237,
      "##ing</w>": 238,
      "##er": 239,
      "##re": 240,
      "##en": 241,
      "##ec": 242,
      "##ly</w>": 243,
      "##ea": 244,
      "co": 245,
      "##it": 246,
      "th": 247,
      "##ro": 248,
      "##nd</w>": 249,
      "and</w>": 250,
      "##king</w>": 251,
      "##at": 252,
      "coo": 253,
      "ho": 254,
      "##on": 255,
      "##ic": 256,
      "##or": 257,
      "##me</w>": 258,
      "fo": 259,
      "##es": 260,
      "##ho": 261,
      "##le</w>": 262,
      "cooking</w>": 263,
      "home</w>": 264,
      "##is": 265,
      "in": 266,
      "##ien": 267,
      "me": 268,
      "for</w>": 269,
      "##al</w>": 270,
      "##ed</w>": 271,
      "##ou": 272,
      "##ar": 273,
      "##qu": 274,
      "the</w>": 275,
      "##erf": 276,
      "##il": 277,
      "##eci": 278,
      "##ts</w>": 279,
      "##ni": 280,
      "##ul": 281,
      "##ab": 282,
      "tec": 283,
      "##hni": 284,
      "techni": 285,
      "techniqu": 286,
      "reci": 287,
      "recip": 288,
      "##as": 289,
      "##am": 290,
      "##an": 291,
      "recipe</w>": 292,
      "cre": 293,
      "##el": 294,
      "creat": 295,
      "##im": 296,
      "wit": 297,
      "##te": 298,
      "fam": 299,
      "thi": 300,
      "##able</w>": 301,
      "##res": 302,
      "create</w>": 303,
      "sp": 304,
      "##en</w>": 305,
      "perf": 306,
      "perfec": 307,
      "##tly</w>": 308,
      "##tho": 309,
      "##ous</w>": 310,
      "metho": 311,
      "##onal</w>": 312,
      "st": 313,
      "to</w>": 314,
      "fres": 315,
      "fresh</w>": 316,
      "##ily</w>": 317,
      "with</w>": 318,
      "us": 319,
      "##red": 320,
      "is</w>": 321,
      "using</w>": 322,
      "##al": 323,
      "##gred": 324,
      "ingred": 325,
      "ingredien": 326,
      "this</w>": 327,
      "##ing": 328,
      "mea": 329,
      "ingredients</w>": 330,
      "##ch": 331,
      "##ra": 332,
      "##ul</w>": 333,
      "##ful</w>": 334,
      "##us": 335,
      "dis": 336,
      "##ee": 337,
      "##ol": 338,
      "sea": 339,
      "##ent</w>": 340,
      "pro": 341,
      "del": 342,
      "techniques</w>": 343,
      "##an</w>": 344,
      "##ious</w>": 345,
      "wor": 346,
      "##ls</w>": 347,
      "perfectly</w>": 348,
      "##ional</w>": 349,
      "ab": 350,
      "meals</w>": 351,
      "##ds</w>": 352,
      "at</w>": 353,
      "kit": 354,
      "kitch": 355,
      "##ks</w>": 356,
      "seas": 357,
      "##icious</w>": 358,
      "delicious</w>": 359,
      "##ies</w>": 360,
      "##av": 361,
      "res": 362,
      "##er</w>": 363,
      "famil": 364,
      "families</w>": 365,
      "ex": 366,
      "##ings</w>": 367,
      "##per": 368,
      "bus": 369,
      "busy</w>": 370,
      "##ati": 371,
      "in</w>": 372,
      "##hes</w>": 373,
      "dishes</w>": 374,
      "##ining</w>": 375,
      "##dit": 376,
      "##ute": 377,
      "##ur": 378,
      "works</w>": 379,
      "##cas": 380,
      "##sol": 381,
      "absol": 382,
      "##utely</w>": 383,
      "absolutely</w>": 384,
      "##red</w>": 385,
      "tra": 386,
      "fl": 387,
      "##ully</w>": 388,
      "##ienc": 389,
      "sho": 390,
      "##ults</w>": 391,
      "results</w>": 392,
      "flav": 393,
      "tradit": 394,
      "methods</w>": 395,
      "kitchen</w>": 396,
      "sim": 397,
      "traditional</w>": 398,
      "##ple</w>": 399,
      "simple</w>": 400,
      "flavor": 401,
      "season": 402,
      "qu": 403,
      "spic": 404,
      "##ead": 405,
      "aro": 406,
      "her": 407,
      "id": 408,
      "idea": 409,
      "##mati": 410,
      "##matic</w>": 411,
      "##derf": 412,
      "won": 413,
      "wonderf": 414,
      "flavorful</w>": 415,
      "aromatic</w>": 416,
      "##bs</w>": 417,
      "herbs</w>": 418,
      "ideal</w>": 419,
      "##sp": 420,
      "##mor": 421,
      "memor": 422,
      "dining</w>": 423,
      "spices</w>": 424,
      "##ired</w>": 425,
      "##ilable</w>": 426,
      "read": 427,
      "av": 428,
      "see": 429,
      "exper": 430,
      "seasonings</w>": 431,
      "experienc": 432,
      "##ailable</w>": 433,
      "##wcas": 434,
      "insp": 435,
      "showcas": 436,
      "wonderfully</w>": 437,
      "memorable</w>": 438,
      "readily</w>": 439,
      "available</w>": 440,
      "seeking</w>": 441,
      "experiences</w>": 442,
      "inspired</w>": 443,
      "showcases</w>": 444,
      "##ti": 445,
      "con": 446,
      "technique</w>": 447,
      "##ment</w>": 448,
      "##uc": 449,
      "##ity</w>": 450,
      "##ality</w>": 451,
      "quality</w>": 452,
      "##pp": 453,
      "en": 454,
      "star": 455,
      "start</w>": 456,
      "app": 457,
      "appro": 458,
      "family</w>": 459,
      "##eg": 460,
      "##enti": 461,
      "##ak": 462,
      "##ver": 463,
      "##et": 464,
      "method</w>": 465,
      "##on</w>": 466,
      "##ist": 467,
      "cons": 468,
      "consist": 469,
      "##ess": 470,
      "##ice</w>": 471,
      "##ess</w>": 472,
      "fro": 473,
      "wh": 474,
      "##ant</w>": 475,
      "##lo": 476,
      "##ish</w>": 477,
      "##ian</w>": 478,
      "suc": 479,
      "succ": 480,
      "ser": 481,
      "serv": 482,
      "##ch</w>": 483,
      "fr": 484,
      "from</w>": 485,
      "##our</w>": 486,
      "your</w>": 487,
      "##low</w>": 488,
      "##em": 489,
      "##ss": 490,
      "ess": 491,
      "##ential</w>": 492,
      "essential</w>": 493,
      "##vi": 494,
      "mi": 495,
      "##inn": 496,
      "##qui": 497,
      "prop": 498,
      "tha": 499,
      "ever": 500,
      "tim": 501,
      "timing</w>": 502,
      "ch": 503,
      "##et</w>": 504,
      "speci": 505,
      "proper</w>": 506,
      "pre": 507,
      "##ron": 508,
      "envi": 509,
      "##ronment</w>": 510,
      "environment</w>": 511,
      "##ig": 512,
      "##ers</w>": 513,
      "##ut": 514,
      "##ta": 515,
      "##ven</w>": 516,
      "re": 517,
      "##ked</w>": 518,
      "perfect</w>": 519,
      "ca": 520,
      "approa": 521,
      "consistent</w>": 522,
      "##ern</w>": 523,
      "##ast": 524,
      "##les</w>": 525,
      "##ens</w>": 526,
      "approach</w>": 527,
      "##anc": 528,
      "##roc": 529,
      "of</w>": 530,
      "ad": 531,
      "ti": 532,
      "##ding</w>": 533,
      "time</w>": 534,
      "gen": 535,
      "adv": 536,
      "that</w>": 537,
      "or</w>": 538,
      "##ese</w>": 539,
      "##anced</w>": 540,
      "advanced</w>": 541,
      "po": 542,
      "lo": 543,
      "##ty</w>": 544,
      "prof": 545,
      "##ure</w>": 546,
      "##essional</w>": 547,
      "professional</w>": 548,
      "##ely</w>": 549,
      "##ter</w>": 550,
      "##th": 551,
      "##ut</w>": 552,
      "##akes</w>": 553,
      "veg": 554,
      "veget": 555,
      "##hout</w>": 556,
      "without</w>": 557,
      "##are</w>": 558,
      "sa": 559,
      "want</w>": 560,
      "who</w>": 561,
      "##ore</w>": 562,
      "##ables</w>": 563,
      "vegetables</w>": 564,
      "to": 565,
      "kitchens</w>": 566,
      "##inner</w>": 567,
      "min": 568,
      "##ill": 569,
      "seasonal</w>": 570,
      "frien": 571,
      "##de</w>": 572,
      "##un": 573,
      "##reful</w>": 574,
      "careful</w>": 575,
      "##dly</w>": 576,
      "friendly</w>": 577,
      "fol": 578,
      "mar": 579,
      "beg": 580,
      "beginner</w>": 581,
      "dish</w>": 582,
      "##rty</w>": 583,
      "##less</w>": 584,
      "saf": 585,
      "##aster</w>": 586,
      "gener": 587,
      "an": 588,
      "success</w>": 589,
      "##ade</w>": 590,
      "work</w>": 591,
      "hom": 592,
      "##emade</w>": 593,
      "homemade</w>": 594,
      "##fic": 595,
      "##pment</w>": 596,
      "##uar": 597,
      "##out</w>": 598,
      "##xim": 599,
      "##arm": 600,
      "about</w>": 601,
      "care</w>": 602,
      "guar": 603,
      "##ante": 604,
      "guarante": 605,
      "guarantees</w>": 606,
      "##tless</w>": 607,
      "##and": 608,
      "loc": 609,
      "##ery</w>": 610,
      "safe</w>": 611,
      "##ately</w>": 612,
      "approxim": 613,
      "servings</w>": 614,
      "approximately</w>": 615,
      "30</w>": 616,
      "minut": 617,
      "end</w>": 618,
      "farm": 619,
      "##ket</w>": 620,
      "market</w>": 621,
      "farmers</w>": 622,
      "minutes</w>": 623,
      "groc": 624,
      "##ur</w>": 625,
      "grocery</w>": 626,
      "store</w>": 627,
      "serves</w>": 628,
      "min</w>": 629,
      "takes</w>": 630,
      "hour": 631,
      "any</w>": 632,
      "hours</w>": 633,
      "fin": 634,
      "yi": 635,
      "##ending</w>": 636,
      "coun": 637,
      "four</w>": 638,
      "##elds</w>": 639,
      "thirty</w>": 640,
      "spending</w>": 641,
      "proven</w>": 642,
      "follow</w>": 643,
      "generous</w>": 644,
      "local</w>": 645,
      "finish</w>": 646,
      "yields</w>": 647,
      "countless</w>": 648,
      "cooked</w>": 649,
      "##ve</w>": 650,
      "success": 651,
      "ro": 652,
      "##ken</w>": 653,
      "every</w>": 654,
      "rice</w>": 655,
      "##wn</w>": 656,
      "bak": 657,
      "equi": 658,
      "equipment</w>": 659,
      "com": 660,
      "##ato": 661,
      "sou": 662,
      "##atoes</w>": 663,
      "slow</w>": 664,
      "resta": 665,
      "##urant</w>": 666,
      "restaurant</w>": 667,
      "stea": 668,
      "##quir": 669,
      "requir": 670,
      "##vol": 671,
      "master</w>": 672,
      "sc": 673,
      "##ct": 674,
      "##ican</w>": 675,
      "south": 676,
      "##sian</w>": 677,
      "##ons</w>": 678,
      "##ai": 679,
      "pra": 680,
      "pract": 681,
      "invol": 682,
      "involv": 683,
      "who": 684,
      "every": 685,
      "cooks</w>": 686,
      "##ently</w>": 687,
      "consistently</w>": 688,
      "mo": 689,
      "gre": 690,
      "practice</w>": 691,
      "cul": 692,
      "##ary</w>": 693,
      "lea": 694,
      "##ay</w>": 695,
      "##inary</w>": 696,
      "requires</w>": 697,
      "culinary</w>": 698,
      "##rit": 699,
      "##rill": 700,
      "##pt": 701,
      "##si": 702,
      "special</w>": 703,
      "##ise</w>": 704,
      "##ine</w>": 705,
      "##sure</w>": 706,
      "cho": 707,
      "prec": 708,
      "yo": 709,
      "sti": 710,
      "precise</w>": 711,
      "pan</w>": 712,
      "##ps</w>": 713,
      "chic": 714,
      "chicken</w>": 715,
      "##ned</w>": 716,
      "pot": 717,
      "wee": 718,
      "week": 719,
      "##ter": 720,
      "successful</w>": 721,
      "grill": 722,
      "tem": 723,
      "temper": 724,
      "you</w>": 725,
      "stir</w>": 726,
      "exc": 727,
      "##day</w>": 728,
      "##tt": 729,
      "bee": 730,
      "beef</w>": 731,
      "##imal</w>": 732,
      "##mo": 733,
      "sing": 734,
      "enter": 735,
      "##taining</w>": 736,
      "single</w>": 737,
      "entertaining</w>": 738,
      "eg": 739,
      "des": 740,
      "desig": 741,
      "##ork</w>": 742,
      "cont": 743,
      "det": 744,
      "##ail</w>": 745,
      "att": 746,
      "##ention</w>": 747,
      "involves</w>": 748,
      "detail</w>": 749,
      "attention</w>": 750,
      "##fu</w>": 751,
      "tofu</w>": 752,
      "pork</w>": 753,
      "whit": 754,
      "potatoes</w>": 755,
      "roast": 756,
      "hig": 757,
      "high</w>": 758,
      "##end</w>": 759,
      "##ard</w>": 760,
      "##ature</w>": 761,
      "pres": 762,
      "##rol</w>": 763,
      "control</w>": 764,
      "creating</w>": 765,
      "temperature</w>": 766,
      "prep": 767,
      "##inners</w>": 768,
      "weekend</w>": 769,
      "opt": 770,
      "optimal</w>": 771,
      "dinners</w>": 772,
      "steam": 773,
      "##ally</w>": 774,
      "##lent</w>": 775,
      "##ellent</w>": 776,
      "excellent</w>": 777,
      "smo": 778,
      "##led</w>": 779,
      "ste": 780,
      "##sive</w>": 781,
      "##ying</w>": 782,
      "##ensive</w>": 783,
      "##rt</w>": 784,
      "##ion</w>": 785,
      "art</w>": 786,
      "oc": 787,
      "own</w>": 788,
      "stand": 789,
      "##casion</w>": 790,
      "specific": 791,
      "everyday</w>": 792,
      "designed</w>": 793,
      "occasion</w>": 794,
      "standard</w>": 795,
      "specifically</w>": 796,
      "baked</w>": 797,
      "bra": 798,
      "pressure</w>": 799,
      "##ach": 800,
      "poach": 801,
      "brais": 802,
      "cook</w>": 803,
      "##ied</w>": 804,
      "cal": 805,
      "oven</w>": 806,
      "called</w>": 807,
      "grilled</w>": 808,
      "fried</w>": 809,
      "whole</w>": 810,
      "sh": 811,
      "##ep": 812,
      "##ean</w>": 813,
      "comp": 814,
      "bre": 815,
      "##ins</w>": 816,
      "am": 817,
      "bar": 818,
      "##bec": 819,
      "barbec": 820,
      "barbecu": 821,
      "stew": 822,
      "seared</w>": 823,
      "roasted</w>": 824,
      "steamed</w>": 825,
      "smoked</w>": 826,
      "poached</w>": 827,
      "braised</w>": 828,
      "barbecued</w>": 829,
      "stewed</w>": 830,
      "rus": 831,
      "vi": 832,
      "##est": 833,
      "sav": 834,
      "##oo": 835,
      "##dd": 836,
      "##ran": 837,
      "fre": 838,
      "##li": 839,
      "##der</w>": 840,
      "##erm": 841,
      "gar": 842,
      "ko": 843,
      "ja": 844,
      "ind": 845,
      "##ast</w>": 846,
      "special": 847,
      "caj": 848,
      "it": 849,
      "##un</w>": 850,
      "##xican</w>": 851,
      "##inese</w>": 852,
      "mexican</w>": 853,
      "##alian</w>": 854,
      "chinese</w>": 855,
      "##rocc": 856,
      "cajun</w>": 857,
      "italian</w>": 858,
      "##ek</w>": 859,
      "greek</w>": 860,
      "##pan": 861,
      "##nam": 862,
      "##nch</w>": 863,
      "##erican</w>": 864,
      "##erran": 865,
      "##rean</w>": 866,
      "medit": 867,
      "##anish</w>": 868,
      "spanish</w>": 869,
      "##etnam": 870,
      "thai</w>": 871,
      "southw": 872,
      "southern</w>": 873,
      "morocc": 874,
      "american</w>": 875,
      "vietnam": 876,
      "french</w>": 877,
      "korean</w>": 878,
      "japan": 879,
      "indian</w>": 880,
      "##erranean</w>": 881,
      "mediterranean</w>": 882,
      "moroccan</w>": 883,
      "vietnamese</w>": 884,
      "japanese</w>": 885,
      "asian</w>": 886,
      "brit": 887,
      "east": 888,
      "germ": 889,
      "##inav": 890,
      "midd": 891,
      "##andinav": 892,
      "scandinav": 893,
      "russian</w>": 894,
      "##estern</w>": 895,
      "southwestern</w>": 896,
      "british</w>": 897,
      "eastern</w>": 898,
      "german</w>": 899,
      "middle</w>": 900,
      "scandinavian</w>": 901,
      "##eet</w>": 902,
      "hea": 903,
      "##gh": 904,
      "##vers</w>": 905,
      "##ivers</w>": 906,
      "delivers</w>": 907,
      "##lic</w>": 908,
      "garlic</w>": 909,
      "bro": 910,
      "##ation</w>": 911,
      "fill": 912,
      "##iz": 913,
      "sal": 914,
      "##ne</w>": 915,
      "##sur": 916,
      "##rou": 917,
      "##ick</w>": 918,
      "##est</w>": 919,
      "sw": 920,
      "sweet</w>": 921,
      "##roo": 922,
      "##pres": 923,
      "repres": 924,
      "bake</w>": 925,
      "##ey</w>": 926,
      "eas": 927,
      "meal</w>": 928,
      "exp": 929,
      "expensive</w>": 930,
      "prepar": 931,
      "foo": 932,
      "food</w>": 933,
      "##of": 934,
      "##fying</w>": 935,
      "col": 936,
      "##ac": 937,
      "ensur": 938,
      "ensures</w>": 939,
      "past": 940,
      "pasta</w>": 941,
      "##fy</w>": 942,
      "##mon</w>": 943,
      "salmon</w>": 944,
      "thigh": 945,
      "thighs</w>": 946,
      "##ents</w>": 947,
      "##gs</w>": 948,
      "represents</w>": 949,
      "##thy</w>": 950,
      "##lthy</w>": 951,
      "healthy</w>": 952,
      "##fully</w>": 953,
      "successfully</w>": 954,
      "sl": 955,
      "oni": 956,
      "##les": 957,
      "onions</w>": 958,
      "cold</w>": 959,
      "##uck</w>": 960,
      "##zen</w>": 961,
      "frozen</w>": 962,
      "mix</w>": 963,
      "##ood": 964,
      "prep</w>": 965,
      "quick</w>": 966,
      "nut": 967,
      "nutrit": 968,
      "nutritious</w>": 969,
      "shoul": 970,
      "eggs</w>": 971,
      "chop</w>": 972,
      "mus": 973,
      "##hroo": 974,
      "mushroo": 975,
      "fish</w>": 976,
      "##rim": 977,
      "##ms</w>": 978,
      "mushrooms</w>": 979,
      "fi": 980,
      "##allo": 981,
      "##ry</w>": 982,
      "##rm</w>": 983,
      "steam</w>": 984,
      "##ot</w>": 985,
      "##ting</w>": 986,
      "egg</w>": 987,
      "##oa</w>": 988,
      "##inoa</w>": 989,
      "quinoa</w>": 990,
      "tom": 991,
      "##ell</w>": 992,
      "breast</w>": 993,
      "bell</w>": 994,
      "grou": 995,
      "pen": 996,
      "shrim": 997,
      "ground</w>": 998,
      "shrimp</w>": 999,
      "tomatoes</w>": 1000,
      "ging": 1001,
      "ginger</w>": 1002,
      "jas": 1003,
      "ling": 1004,
      "nood": 1005,
      "pep": 1006,
      "sil": 1007,
      "##mine</w>": 1008,
      "##uine</w>": 1009,
      "##pers</w>": 1010,
      "chuck</w>": 1011,
      "root</w>": 1012,
      "scallo": 1013,
      "greens</w>": 1014,
      "leafy</w>": 1015,
      "chops</w>": 1016,
      "white</w>": 1017,
      "whites</w>": 1018,
      "brown</w>": 1019,
      "fillet</w>": 1020,
      "shoulder</w>": 1021,
      "firm</w>": 1022,
      "penne</w>": 1023,
      "jasmine</w>": 1024,
      "linguine</w>": 1025,
      "noodles</w>": 1026,
      "peppers</w>": 1027,
      "silken</w>": 1028,
      "scallops</w>": 1029,
      "comb": 1030,
      "dice</w>": 1031,
      "slice</w>": 1032,
      "recipes</w>": 1033,
      "preparation</w>": 1034,
      "gra": 1035,
      "##dern</w>": 1036,
      "modern</w>": 1037,
      "love</w>": 1038,
      "over": 1039,
      "compl": 1040,
      "##ill</w>": 1041,
      "inc": 1042,
      "##ud": 1043,
      "##ome</w>": 1044,
      "wholes": 1045,
      "wholesome</w>": 1046,
      "sat": 1047,
      "##isfying</w>": 1048,
      "satisfying</w>": 1049,
      "ef": 1050,
      "prote": 1051,
      "effic": 1052,
      "##ov": 1053,
      "hot</w>": 1054,
      "proteins</w>": 1055,
      "##ations</w>": 1056,
      "sof": 1057,
      "soft</w>": 1058,
      "whi": 1059,
      "##ience</w>": 1060,
      "dry</w>": 1061,
      "wet</w>": 1062,
      "while</w>": 1063,
      "saves</w>": 1064,
      "will</w>": 1065,
      "##one</w>": 1066,
      "everyone</w>": 1067,
      "pat": 1068,
      "patience</w>": 1069,
      "##or</w>": 1070,
      "mon": 1071,
      "money</w>": 1072,
      "##uin": 1073,
      "genuin": 1074,
      "genuinely</w>": 1075,
      "combin": 1076,
      "makes</w>": 1077,
      "val": 1078,
      "lear": 1079,
      "prepare</w>": 1080,
      "learn</w>": 1081,
      "ag": 1082,
      "##ain</w>": 1083,
      "##nov": 1084,
      "innov": 1085,
      "incl": 1086,
      "##ient</w>": 1087,
      "efficient</w>": 1088,
      "valu": 1089,
      "grains</w>": 1090,
      "##icat": 1091,
      "##hensive</w>": 1092,
      "##rehensive</w>": 1093,
      "##quest</w>": 1094,
      "provi": 1095,
      "request</w>": 1096,
      "lean</w>": 1097,
      "comprehensive</w>": 1098,
      "specialty</w>": 1099,
      "overly</w>": 1100,
      "complicat": 1101,
      "##udes</w>": 1102,
      "combined</w>": 1103,
      "again</w>": 1104,
      "includes</w>": 1105,
      "valuable</w>": 1106,
      "providing</w>": 1107,
      "complicated</w>": 1108,
      "##duc": 1109,
      "##ier</w>": 1110,
      "easier</w>": 1111,
      "che": 1112,
      "more</w>": 1113,
      "##antly</w>": 1114,
      "faster</w>": 1115,
      "sig": 1116,
      "##nific": 1117,
      "signific": 1118,
      "significantly</w>": 1119,
      "su": 1120,
      "cr": 1121,
      "frying</w>": 1122,
      "an</w>": 1123,
      "##cep": 1124,
      "concep": 1125,
      "involving</w>": 1126,
      "specializ": 1127,
      "concept</w>": 1128,
      "specialized</w>": 1129,
      "cl": 1130,
      "##ad</w>": 1131,
      "##tion</w>": 1132,
      "un": 1133,
      "##aking</w>": 1134,
      "bo": 1135,
      "10</w>": 1136,
      "12</w>": 1137,
      "11</w>": 1138,
      "ingredient</w>": 1139,
      "##duce</w>": 1140,
      "produce</w>": 1141,
      "flavor</w>": 1142,
      "##igh": 1143,
      "##lt": 1144,
      "##eed</w>": 1145,
      "13</w>": 1146,
      "##ev": 1147,
      "kn": 1148,
      "##ce</w>": 1149,
      "saving</w>": 1150,
      "##tions</w>": 1151,
      "##tic</w>": 1152,
      "bl": 1153,
      "14</w>": 1154,
      "07</w>": 1155,
      "03</w>": 1156,
      "04</w>": 1157,
      "06</w>": 1158,
      "05</w>": 1159,
      "09</w>": 1160,
      "02</w>": 1161,
      "01</w>": 1162,
      "00</w>": 1163,
      "08</w>": 1164,
      "##az": 1165,
      "##ib": 1166,
      "##eb": 1167,
      "measure</w>": 1168,
      "##azing</w>": 1169,
      "baking</w>": 1170,
      "##ortions</w>": 1171,
      "##ure": 1172,
      "##sure": 1173,
      "measure": 1174,
      "exac": 1175,
      "proportions</w>": 1176,
      "measurement</w>": 1177,
      "exactly</w>": 1178,
      "whis": 1179,
      "##and</w>": 1180,
      "bread</w>": 1181,
      "##ender</w>": 1182,
      "need</w>": 1183,
      "cel": 1184,
      "##for": 1185,
      "##ich</w>": 1186,
      "nee": 1187,
      "cook": 1188,
      "needs</w>": 1189,
      "##ebr": 1190,
      "##up</w>": 1191,
      "##mer</w>": 1192,
      "easy</w>": 1193,
      "require</w>": 1194,
      "##ols</w>": 1195,
      "training</w>": 1196,
      "tools</w>": 1197,
      "meg": 1198,
      "##ight</w>": 1199,
      "ult": 1200,
      "grilling</w>": 1201,
      "##gy</w>": 1202,
      "celebr": 1203,
      "chef</w>": 1204,
      "dev": 1205,
      "##opment</w>": 1206,
      "##elopment</w>": 1207,
      "development</w>": 1208,
      "hand</w>": 1209,
      "##ust</w>": 1210,
      "comfor": 1211,
      "##gh</w>": 1212,
      "##ative</w>": 1213,
      "innovative</w>": 1214,
      "super": 1215,
      "##oon</w>": 1216,
      "##amy</w>": 1217,
      "creamy</w>": 1218,
      "##py</w>": 1219,
      "##ispy</w>": 1220,
      "crispy</w>": 1221,
      "roasting</w>": 1222,
      "##inat": 1223,
      "marinat": 1224,
      "und": 1225,
      "##ass": 1226,
      "##ol</w>": 1227,
      "on</w>": 1228,
      "##row": 1229,
      "clean</w>": 1230,
      "##ches</w>": 1231,
      "approaches</w>": 1232,
      "dur": 1233,
      "##ness</w>": 1234,
      "during</w>": 1235,
      "rich</w>": 1236,
      "##ers": 1237,
      "spicy</w>": 1238,
      "tender</w>": 1239,
      "knead": 1240,
      "comforting</w>": 1241,
      "dinner</w>": 1242,
      "day</w>": 1243,
      "sk": 1244,
      "##ean": 1245,
      "generations</w>": 1246,
      "##ring</w>": 1247,
      "ma": 1248,
      "steaming</w>": 1249,
      "fav": 1250,
      "##orit": 1251,
      "favorit": 1252,
      "seasoning</w>": 1253,
      "##ety</w>": 1254,
      "safety</w>": 1255,
      "kni": 1256,
      "pot</w>": 1257,
      "##ake</w>": 1258,
      "mic": 1259,
      "cooker</w>": 1260,
      "##mmer</w>": 1261,
      "summer</w>": 1262,
      "win": 1263,
      "winter</w>": 1264,
      "##leg": 1265,
      "fry</w>": 1266,
      "mul": 1267,
      "non": 1268,
      "sem": 1269,
      "##uts</w>": 1270,
      "re</w>": 1271,
      "smoo": 1272,
      "do": 1273,
      "sec": 1274,
      "##am</w>": 1275,
      "secre": 1276,
      "ju": 1277,
      "##acked</w>": 1278,
      "##ible</w>": 1279,
      "amazing</w>": 1280,
      "##ix": 1281,
      "##in</w>": 1282,
      "##old": 1283,
      "25</w>": 1284,
      "em": 1285,
      "car": 1286,
      "meat</w>": 1287,
      "whisk</w>": 1288,
      "##amel": 1289,
      "as</w>": 1290,
      "gr": 1291,
      "##ills</w>": 1292,
      "skills</w>": 1293,
      "mel": 1294,
      "shar": 1295,
      "##ven": 1296,
      "##ent": 1297,
      "##tain</w>": 1298,
      "##ru": 1299,
      "celebrations</w>": 1300,
      "marinating</w>": 1301,
      "down</w>": 1302,
      "##rag": 1303,
      "pass": 1304,
      "passed</w>": 1305,
      "##hing</w>": 1306,
      "##ry": 1307,
      "##eam": 1308,
      "##iling</w>": 1309,
      "micro": 1310,
      "rol": 1311,
      "##ie</w>": 1312,
      "cheese</w>": 1313,
      "##nigh": 1314,
      "weeknigh": 1315,
      "ban": 1316,
      "even": 1317,
      "##ept": 1318,
      "##ered</w>": 1319,
      "except": 1320,
      "filling</w>": 1321,
      "innovation</w>": 1322,
      "crust</w>": 1323,
      "exceptional</w>": 1324,
      "75</w>": 1325,
      "di": 1326,
      "##ching</w>": 1327,
      "##rant</w>": 1328,
      "##jing</w>": 1329,
      "##ofing</w>": 1330,
      "ultr": 1331,
      "cut": 1332,
      "cutting</w>": 1333,
      "##ant": 1334,
      "weeknight</w>": 1335,
      "one</w>": 1336,
      "aut": 1337,
      "##henti": 1338,
      "##ulsi": 1339,
      "emulsi": 1340,
      "caramel": 1341,
      "authenti": 1342,
      "carameliz": 1343,
      "authentic</w>": 1344,
      "throu": 1345,
      "##astic</w>": 1346,
      "fant": 1347,
      "##redible</w>": 1348,
      "wonderful</w>": 1349,
      "##ance</w>": 1350,
      "##ook": 1351,
      "incredible</w>": 1352,
      "through</w>": 1353,
      "fantastic</w>": 1354,
      "deg": 1355,
      "##fing</w>": 1356,
      "gou": 1357,
      "##met</w>": 1358,
      "##rmet</w>": 1359,
      "fold</w>": 1360,
      "gourmet</w>": 1361,
      "##oy</w>": 1362,
      "mil": 1363,
      "light</w>": 1364,
      "rustic</w>": 1365,
      "##eep</w>": 1366,
      "deep</w>": 1367,
      "eleg": 1368,
      "par": 1369,
      "tan": 1370,
      "##ex</w>": 1371,
      "##ory</w>": 1372,
      "##thw": 1373,
      "savory</w>": 1374,
      "blan": 1375,
      "juic": 1376,
      "degl": 1377,
      "mild</w>": 1378,
      "elegant</w>": 1379,
      "tangy</w>": 1380,
      "flavors</w>": 1381,
      "##ices</w>": 1382,
      "##rum": 1383,
      "frag": 1384,
      "enh": 1385,
      "hearty</w>": 1386,
      "whisking</w>": 1387,
      "fragrant</w>": 1388,
      "mou": 1389,
      "sous</w>": 1390,
      "##ip": 1391,
      "##hip": 1392,
      "##ogy</w>": 1393,
      "##do": 1394,
      "##dol": 1395,
      "##lic": 1396,
      "##inc": 1397,
      "##ering</w>": 1398,
      "##atering</w>": 1399,
      "##hop": 1400,
      "methodol": 1401,
      "proofing</w>": 1402,
      "resting</w>": 1403,
      "##uteing</w>": 1404,
      "reduc": 1405,
      "sauteing</w>": 1406,
      "folding</w>": 1407,
      "scrum": 1408,
      "practices</w>": 1409,
      "##ptious</w>": 1410,
      "tempering</w>": 1411,
      "poaching</w>": 1412,
      "braising</w>": 1413,
      "vide</w>": 1414,
      "broiling</w>": 1415,
      "complex</w>": 1416,
      "kneading</w>": 1417,
      "melting</w>": 1418,
      "emulsifying</w>": 1419,
      "caramelizing</w>": 1420,
      "##thwatering</w>": 1421,
      "blanching</w>": 1422,
      "juicy</w>": 1423,
      "deglazing</w>": 1424,
      "enhance</w>": 1425,
      "mouthwatering</w>": 1426,
      "methodology</w>": 1427,
      "reducing</w>": 1428,
      "scrumptious</w>": 1429,
      "##oc": 1430,
      "##ath": 1431,
      "season</w>": 1432,
      "mix": 1433,
      "##iency</w>": 1434,
      "efficiency</w>": 1435,
      "##il</w>": 1436,
      "##oil": 1437,
      "##whip": 1438,
      "but": 1439,
      "hav": 1440,
      "bow": 1441,
      "##st": 1442,
      "##grill": 1443,
      "clean": 1444,
      "##rown": 1445,
      "by</w>": 1446,
      "potl": 1447,
      "##roast": 1448,
      "da": 1449,
      "wis": 1450,
      "##ior</w>": 1451,
      "##tc": 1452,
      "chil": 1453,
      "##dom</w>": 1454,
      "wisdom</w>": 1455,
      "##at</w>": 1456,
      "##uce</w>": 1457,
      "great</w>": 1458,
      "cool</w>": 1459,
      "sauce</w>": 1460,
      "sheet</w>": 1461,
      "##dic": 1462,
      "favorite</w>": 1463,
      "im": 1464,
      "##ize</w>": 1465,
      "gath": 1466,
      "##erings</w>": 1467,
      "gatherings</w>": 1468,
      "##ber</w>": 1469,
      "##uti": 1470,
      "##onize</w>": 1471,
      "revol": 1472,
      "##utionize</w>": 1473,
      "revolutionize</w>": 1474,
      "pe": 1475,
      "##bak": 1476,
      "can</w>": 1477,
      "even</w>": 1478,
      "##fry": 1479,
      "##get</w>": 1480,
      "they</w>": 1481,
      "##ates</w>": 1482,
      "uses</w>": 1483,
      "shine</w>": 1484,
      "ultra": 1485,
      "celebrates</w>": 1486,
      "grill</w>": 1487,
      "boil</w>": 1488,
      "##all</w>": 1489,
      "fall</w>": 1490,
      "spring</w>": 1491,
      "##ace</w>": 1492,
      "bat": 1493,
      "##assi": 1494,
      "classi": 1495,
      "batch</w>": 1496,
      "classic</w>": 1497,
      "fun": 1498,
      "##proo": 1499,
      "##dam": 1500,
      "fool": 1501,
      "##ental</w>": 1502,
      "fundam": 1503,
      "##proof</w>": 1504,
      "foolproof</w>": 1505,
      "fundamental</w>": 1506,
      "sharp</w>": 1507,
      "##ves</w>": 1508,
      "vers": 1509,
      "##rec": 1510,
      "##atile</w>": 1511,
      "preparations</w>": 1512,
      "knives</w>": 1513,
      "versatile</w>": 1514,
      "##ion": 1515,
      "##rrec": 1516,
      "##sit": 1517,
      "##intain</w>": 1518,
      "correc": 1519,
      "##ortc": 1520,
      "##ards</w>": 1521,
      "space</w>": 1522,
      "posit": 1523,
      "tool</w>": 1524,
      "design</w>": 1525,
      "shortc": 1526,
      "innovations</w>": 1527,
      "boards</w>": 1528,
      "maintain</w>": 1529,
      "secrets</w>": 1530,
      "daily</w>": 1531,
      "##ioning</w>": 1532,
      "correctly</w>": 1533,
      "positioning</w>": 1534,
      "shortcuts</w>": 1535,
      "##th</w>": 1536,
      "##ead</w>": 1537,
      "##ough</w>": 1538,
      "##over</w>": 1539,
      "smooth</w>": 1540,
      "pl": 1541,
      "tea": 1542,
      "##ions</w>": 1543,
      "traditions</w>": 1544,
      "roast</w>": 1545,
      "butter</w>": 1546,
      "##ted</w>": 1547,
      "bud": 1548,
      "cream</w>": 1549,
      "budget</w>": 1550,
      "dess": 1551,
      "##ert</w>": 1552,
      "dessert</w>": 1553,
      "minimal</w>": 1554,
      "##fast</w>": 1555,
      "##akfast</w>": 1556,
      "breakfast</w>": 1557,
      "##st</w>": 1558,
      "cleanup</w>": 1559,
      "packed</w>": 1560,
      "vegetable</w>": 1561,
      "anti": 1562,
      "tr": 1563,
      "under": 1564,
      "##dn</w>": 1565,
      "##bea": 1566,
      "unders": 1567,
      "multi": 1568,
      "tast": 1569,
      "##oons</w>": 1570,
      "##ag": 1571,
      "ant": 1572,
      "##ef": 1573,
      "##iv": 1574,
      "ap": 1575,
      "##ero": 1576,
      "##ear</w>": 1577,
      "##end": 1578,
      "mince</w>": 1579,
      "taste</w>": 1580,
      "cup</w>": 1581,
      "have</w>": 1582,
      "##ute</w>": 1583,
      "step</w>": 1584,
      "##me": 1585,
      "10": 1586,
      "oun": 1587,
      "tab": 1588,
      "##spoon</w>": 1589,
      "##lesp": 1590,
      "teaspoon</w>": 1591,
      "tablesp": 1592,
      "slo": 1593,
      "slow": 1594,
      "18": 1595,
      "15": 1596,
      "16": 1597,
      "12": 1598,
      "14": 1599,
      "17": 1600,
      "19": 1601,
      "11": 1602,
      "13": 1603,
      "pic": 1604,
      "mega": 1605,
      "how</w>": 1606,
      "##ate</w>": 1607,
      "##brown": 1608,
      "night</w>": 1609,
      "la": 1610,
      "we</w>": 1611,
      "##cc": 1612,
      "pr": 1613,
      "##um</w>": 1614,
      "prot": 1615,
      "##ocol</w>": 1616,
      "protocol</w>": 1617,
      "##fe</w>": 1618,
      "##ever</w>": 1619,
      "knife</w>": 1620,
      "bowl</w>": 1621,
      "holi": 1622,
      "measur": 1623,
      "saute</w>": 1624,
      "blender</w>": 1625,
      "holiday</w>": 1626,
      "measuring</w>": 1627,
      "enj": 1628,
      "enjoy</w>": 1629,
      "spoons</w>": 1630,
      "simmer</w>": 1631,
      "no</w>": 1632,
      "##ues": 1633,
      "##tir": 1634,
      "##sl": 1635,
      "##ear": 1636,
      "mult": 1637,
      "##boil": 1638,
      "li": 1639,
      "##ed": 1640,
      "##ren</w>": 1641,
      "ki": 1642,
      "##cook": 1643,
      "##ning</w>": 1644,
      "combine</w>": 1645,
      "knead</w>": 1646,
      "marinate</w>": 1647,
      "##anning</w>": 1648,
      "planning</w>": 1649,
      "##just</w>": 1650,
      "##asted</w>": 1651,
      "adjust</w>": 1652,
      "lef": 1653,
      "serve</w>": 1654,
      "left": 1655,
      "##nish</w>": 1656,
      "##ret": 1657,
      "##read</w>": 1658,
      "spread</w>": 1659,
      "stret": 1660,
      "garnish</w>": 1661,
      "roll</w>": 1662,
      "lem": 1663,
      "fru": 1664,
      "lemon</w>": 1665,
      "##ist</w>": 1666,
      "bean": 1667,
      "cass": 1668,
      "warm": 1669,
      "##ip</w>": 1670,
      "##gur": 1671,
      "yogur": 1672,
      "beans</w>": 1673,
      "warming</w>": 1674,
      "yogurt</w>": 1675,
      "cur": 1676,
      "pou": 1677,
      "pie</w>": 1678,
      "##uf": 1679,
      "##ging</w>": 1680,
      "##ke</w>": 1681,
      "inch</w>": 1682,
      "herb</w>": 1683,
      "##thie</w>": 1684,
      "soul</w>": 1685,
      "stew</w>": 1686,
      "smoothie</w>": 1687,
      "##erole</w>": 1688,
      "ounce</w>": 1689,
      "tablespoon</w>": 1690,
      "leftover</w>": 1691,
      "casserole</w>": 1692,
      "curry</w>": 1693,
      "pound</w>": 1694,
      "##zest": 1695,
      "gold": 1696,
      "golden</w>": 1697,
      "##ney</w>": 1698,
      "honey</w>": 1699,
      "dough</w>": 1700,
      "##it</w>": 1701,
      "##udd": 1702,
      "##atever</w>": 1703,
      "melt": 1704,
      "thin</w>": 1705,
      "##pped</w>": 1706,
      "whatever</w>": 1707,
      "##izz": 1708,
      "chees": 1709,
      "favorites</w>": 1710,
      "slowly</w>": 1711,
      "pre</w>": 1712,
      "fruit</w>": 1713,
      "melted</w>": 1714,
      "cinn": 1715,
      "crow": 1716,
      "fee": 1717,
      "ice</w>": 1718,
      "lit": 1719,
      "las": 1720,
      "nigh": 1721,
      "nuts</w>": 1722,
      "panc": 1723,
      "pizz": 1724,
      "ris": 1725,
      "sy": 1726,
      "sand": 1727,
      "soon</w>": 1728,
      "tac": 1729,
      "tues": 1730,
      "van": 1731,
      "##col": 1732,
      "##mix": 1733,
      "##mered</w>": 1734,
      "##tb": 1735,
      "##ham</w>": 1736,
      "##ott": 1737,
      "##rred</w>": 1738,
      "##rup</w>": 1739,
      "##app": 1740,
      "##na</w>": 1741,
      "##yered</w>": 1742,
      "##wned</w>": 1743,
      "##wich</w>": 1744,
      "##ecake</w>": 1745,
      "##amon</w>": 1746,
      "##ana</w>": 1747,
      "creativ": 1748,
      "perfection</w>": 1749,
      "stacked</w>": 1750,
      "studd": 1751,
      "##alls</w>": 1752,
      "meatb": 1753,
      "##ched</w>": 1754,
      "##usted</w>": 1755,
      "disapp": 1756,
      "exter": 1757,
      "##urned</w>": 1758,
      "flak": 1759,
      "fluf": 1760,
      "simmered</w>": 1761,
      "seasoned</w>": 1762,
      "##ucks</w>": 1763,
      "chip</w>": 1764,
      "churned</w>": 1765,
      "gently</w>": 1766,
      "toasted</w>": 1767,
      "topped</w>": 1768,
      "##illa</w>": 1769,
      "##ximum</w>": 1770,
      "soup</w>": 1771,
      "moist</w>": 1772,
      "chocol": 1773,
      "stirred</w>": 1774,
      "breaking</w>": 1775,
      "browned</w>": 1776,
      "salad</w>": 1777,
      "combining</w>": 1778,
      "gram</w>": 1779,
      "graham</w>": 1780,
      "crusted</w>": 1781,
      "blend": 1782,
      "cookies</w>": 1783,
      "kneaded</w>": 1784,
      "maximum</w>": 1785,
      "rolled</w>": 1786,
      "bank</w>": 1787,
      "banana</w>": 1788,
      "evenly</w>": 1789,
      "evenings</w>": 1790,
      "dirty</w>": 1791,
      "parsl": 1792,
      "potlucks</w>": 1793,
      "chilly</w>": 1794,
      "##agna</w>": 1795,
      "apple</w>": 1796,
      "layered</w>": 1797,
      "stretched</w>": 1798,
      "cheesecake</w>": 1799,
      "cinnamon</w>": 1800,
      "crowd</w>": 1801,
      "feeding</w>": 1802,
      "liter</w>": 1803,
      "lasagna</w>": 1804,
      "nights</w>": 1805,
      "pancakes</w>": 1806,
      "pizza</w>": 1807,
      "risott": 1808,
      "syrup</w>": 1809,
      "sandwich</w>": 1810,
      "taco</w>": 1811,
      "tuesday</w>": 1812,
      "vanilla</w>": 1813,
      "creatively</w>": 1814,
      "studded</w>": 1815,
      "meatballs</w>": 1816,
      "disappear</w>": 1817,
      "exterior</w>": 1818,
      "flaky</w>": 1819,
      "fluffy</w>": 1820,
      "chocolate</w>": 1821,
      "blended</w>": 1822,
      "parsley</w>": 1823,
      "risotto</w>": 1824,
      "##ater</w>": 1825,
      "##ence</w>": 1826,
      "##eing</w>": 1827,
      "acc": 1828,
      "memories</w>": 1829,
      "##icing</w>": 1830,
      "secret</w>": 1831,
      "out": 1832,
      "##doo": 1833,
      "ideas</w>": 1834,
      "outdoo": 1835,
      "outdoor</w>": 1836,
      "##fold": 1837,
      "##bing</w>": 1838,
      "table</w>": 1839,
      "##asn</w>": 1840,
      "br": 1841,
      "cu": 1842,
      "like</w>": 1843,
      "##chop": 1844,
      "##mel": 1845,
      "##minc": 1846,
      "mixing</w>": 1847,
      "these</w>": 1848,
      "make</w>": 1849,
      "##her</w>": 1850,
      "##get": 1851,
      "toget": 1852,
      "together</w>": 1853,
      "##und</w>": 1854,
      "around</w>": 1855,
      "tip</w>": 1856,
      "megab": 1857,
      "ultrab": 1858,
      "trick</w>": 1859,
      "bea": 1860,
      "##steam": 1861,
      "##eful</w>": 1862,
      "##eest</w>": 1863,
      "##eer</w>": 1864,
      "##id": 1865,
      "don</w>": 1866,
      "stick</w>": 1867,
      "##fid": 1868,
      "confid": 1869,
      "##ge</w>": 1870,
      "non</w>": 1871,
      "heat</w>": 1872,
      "##asting</w>": 1873,
      "confidence</w>": 1874,
      "rest": 1875,
      "##ther</w>": 1876,
      "##ester</w>": 1877,
      "##ture</w>": 1878,
      "##ble</w>": 1879,
      "ach": 1880,
      "bring</w>": 1881,
      "cer": 1882,
      "hel": 1883,
      "joy</w>": 1884,
      "lasting</w>": 1885,
      "##eve</w>": 1886,
      "##etion</w>": 1887,
      "##ieve</w>": 1888,
      "##pro": 1889,
      "##ow": 1890,
      "##ople</w>": 1891,
      "##led": 1892,
      "##slic": 1893,
      "##ving</w>": 1894,
      "##eness</w>": 1895,
      "##eable</w>": 1896,
      "##eless</w>": 1897,
      "why</w>": 1898,
      "##tand</w>": 1899,
      "science</w>": 1900,
      "most</w>": 1901,
      "culture</w>": 1902,
      "represent</w>": 1903,
      "know": 1904,
      "sharing</w>": 1905,
      "imm": 1906,
      "impro": 1907,
      "people</w>": 1908,
      "understand</w>": 1909,
      "achieve</w>": 1910,
      "certain</w>": 1911,
      "helps</w>": 1912,
      "##ledge</w>": 1913,
      "knowledge</w>": 1914,
      "improving</w>": 1915,
      "proc": 1916,
      "##om": 1917,
      "20": 1918,
      "##cing</w>": 1919,
      "adults</w>": 1920,
      "##beat": 1921,
      "recipe": 1922,
      "##thod": 1923,
      "##method": 1924,
      "it</w>": 1925,
      "##ersi": 1926,
      "op": 1927,
      "##ersion</w>": 1928,
      "##nic</w>": 1929,
      "bas": 1930,
      "stud": 1931,
      "colleg": 1932,
      "potluck</w>": 1933,
      "picnic</w>": 1934,
      "student</w>": 1935,
      "college</w>": 1936,
      "35": 1937,
      "45": 1938,
      "dr": 1939,
      "08": 1940,
      "05": 1941,
      "06": 1942,
      "02": 1943,
      "04": 1944,
      "07": 1945,
      "09": 1946,
      "01": 1947,
      "03": 1948,
      "28": 1949,
      "25": 1950,
      "26": 1951,
      "22": 1952,
      "24": 1953,
      "27": 1954,
      "29": 1955,
      "21": 1956,
      "23": 1957,
      "38": 1958,
      "36": 1959,
      "32": 1960,
      "30": 1961,
      "34": 1962,
      "37": 1963,
      "39": 1964,
      "31": 1965,
      "33": 1966,
      "48": 1967,
      "46": 1968,
      "42": 1969,
      "40": 1970,
      "44": 1971,
      "47": 1972,
      "49": 1973,
      "41": 1974,
      "43": 1975,
      "fea": 1976,
      "sen": 1977,
      "##man": 1978,
      "##dations</w>": 1979,
      "##dren</w>": 1980,
      "##ric": 1981,
      "##rib": 1982,
      "##ution</w>": 1983,
      "then</w>": 1984,
      "##etary</w>": 1985,
      "mini": 1986,
      "friends</w>": 1987,
      "roman": 1988,
      "##modations</w>": 1989,
      "contrib": 1990,
      "semi": 1991,
      "dietary</w>": 1992,
      "children</w>": 1993,
      "accom": 1994,
      "restric": 1995,
      "feast</w>": 1996,
      "senior</w>": 1997,
      "romantic</w>": 1998,
      "contribution</w>": 1999,
      "accommodations</w>": 2000,
      "restriction</w>": 2001,
      "tran": 2002,
      "trans": 2003,
      "##arm</w>": 2004,
      "##ack</w>": 2005,
      "dried</w>": 2006,
      "can": 2007,
      "canned</w>": 2008,
      "warm</w>": 2009,
      "inst": 2010,
      "mak": 2011,
      "##ale</w>": 2012,
      "##hool</w>": 2013,
      "school</w>": 2014,
      "cups</w>": 2015,
      "##ron</w>": 2016,
      "##amix": 2017,
      "maker</w>": 2018,
      "bowls</w>": 2019,
      "instant</w>": 2020,
      "dut": 2021,
      "##ir</w>": 2022,
      "stoc": 2023,
      "##illet</w>": 2024,
      "board</w>": 2025,
      "skillet</w>": 2026,
      "dutch</w>": 2027,
      "air</w>": 2028,
      "cast</w>": 2029,
      "iron</w>": 2030,
      "ton": 2031,
      "wood": 2032,
      "zester</w>": 2033,
      "##yer</w>": 2034,
      "##ermo": 2035,
      "##ener</w>": 2036,
      "thermo": 2037,
      "##atul": 2038,
      "##eler</w>": 2039,
      "spatul": 2040,
      "stand</w>": 2041,
      "##essor</w>": 2042,
      "fryer</w>": 2043,
      "toaster</w>": 2044,
      "scale</w>": 2045,
      "press</w>": 2046,
      "grater</w>": 2047,
      "paring</w>": 2048,
      "mixer</w>": 2049,
      "peeler</w>": 2050,
      "##meter</w>": 2051,
      "beat</w>": 2052,
      "immersion</w>": 2053,
      "processor</w>": 2054,
      "opener</w>": 2055,
      "stock</w>": 2056,
      "tongs</w>": 2057,
      "wooden</w>": 2058,
      "thermometer</w>": 2059,
      "spatula</w>": 2060,
      "##coo": 2061,
      "##ub": 2062,
      "00": 2063,
      "rub": 2064,
      "rubber</w>": 2065,
      "ba": 2066,
      "comfort</w>": 2067,
      "##ix</w>": 2068,
      "##hop</w>": 2069,
      "##asteam": 2070,
      "kids</w>": 2071,
      "##form</w>": 2072,
      "##ichop": 2073,
      "##islic": 2074,
      "##imel": 2075,
      "##imix": 2076,
      "##iminc": 2077,
      "##ember</w>": 2078,
      "tips</w>": 2079,
      "minib": 2080,
      "##uary</w>": 2081,
      "chop": 2082,
      "semib": 2083,
      "transform</w>": 2084,
      "gl": 2085,
      "##uten</w>": 2086,
      "gluten</w>": 2087,
      "##ator</w>": 2088,
      "brings</w>": 2089,
      "won</w>": 2090,
      "aren</w>": 2091,
      "hasn</w>": 2092,
      "is": 2093,
      "wer": 2094,
      "wou": 2095,
      "wasn</w>": 2096,
      "##ldn</w>": 2097,
      "coul": 2098,
      "##izer</w>": 2099,
      "shouldn</w>": 2100,
      "haven</w>": 2101,
      "isn</w>": 2102,
      "weren</w>": 2103,
      "wouldn</w>": 2104,
      "couldn</w>": 2105,
      "##stir": 2106,
      "##sear": 2107,
      "##isteam": 2108,
      "##zer</w>": 2109,
      "##bo": 2110,
      "##yle</w>": 2111,
      "##melt": 2112,
      "proper": 2113,
      "properly</w>": 2114,
      "##perf": 2115,
      "style</w>": 2116,
      "superf": 2117,
      "blend</w>": 2118,
      "if</w>": 2119,
      "cut</w>": 2120,
      "way</w>": 2121,
      "##ecing</w>": 2122,
      "##abing</w>": 2123,
      "##ucing</w>": 2124,
      "megac": 2125,
      "##fol": 2126,
      "fast</w>": 2127,
      "reg": 2128,
      "##ics</w>": 2129,
      "##icook": 2130,
      "hard</w>": 2131,
      "ra": 2132,
      "chopp": 2133,
      "rough</w>": 2134,
      "free</w>": 2135,
      "raw</w>": 2136,
      "##urp": 2137,
      "##unch</w>": 2138,
      "ov": 2139,
      "rem": 2140,
      "surp": 2141,
      "##cover</w>": 2142,
      "##rise</w>": 2143,
      "discover</w>": 2144,
      "delight</w>": 2145,
      "##essible</w>": 2146,
      "free": 2147,
      "accessible</w>": 2148,
      "surprise</w>": 2149,
      "ah": 2150,
      "##eking</w>": 2151,
      "##eding</w>": 2152,
      "##ehing</w>": 2153,
      "##ejing</w>": 2154,
      "##efing</w>": 2155,
      "##mix</w>": 2156,
      "##bake</w>": 2157,
      "##rer</w>": 2158,
      "##rest</w>": 2159,
      "##ebing</w>": 2160,
      "underm": 2161,
      "ahead</w>": 2162,
      "sn": 2163,
      "##arian</w>": 2164,
      "snack</w>": 2165,
      "lunch</w>": 2166,
      "##ren": 2167,
      "whip</w>": 2168,
      "pick": 2169,
      "freezer</w>": 2170,
      "megas": 2171,
      "ultras": 2172,
      "water</w>": 2173,
      "kid</w>": 2174,
      "har": 2175,
      "##vest</w>": 2176,
      "vegetarian</w>": 2177,
      "melt</w>": 2178,
      "dicing</w>": 2179,
      "eat": 2180,
      "pa": 2181,
      "str": 2182,
      "working</w>": 2183,
      "picky</w>": 2184,
      "harvest</w>": 2185,
      "paren": 2186,
      "##esting</w>": 2187,
      "sour": 2188,
      "made</w>": 2189,
      "sol": 2190,
      "##ced</w>": 2191,
      "##utions</w>": 2192,
      "solutions</w>": 2193,
      "hun": 2194,
      "right</w>": 2195,
      "sch": 2196,
      "wea": 2197,
      "##cy</w>": 2198,
      "##gen": 2199,
      "##gry</w>": 2200,
      "##ergen": 2201,
      "##ateg": 2202,
      "##icks</w>": 2203,
      "##ules</w>": 2204,
      "##ures</w>": 2205,
      "##ete</w>": 2206,
      "advent": 2207,
      "too</w>": 2208,
      "locally</w>": 2209,
      "complete</w>": 2210,
      "emergen": 2211,
      "plant</w>": 2212,
      "tricks</w>": 2213,
      "##edules</w>": 2214,
      "based</w>": 2215,
      "eaters</w>": 2216,
      "strateg": 2217,
      "parents</w>": 2218,
      "sourced</w>": 2219,
      "hungry</w>": 2220,
      "schedules</w>": 2221,
      "weather</w>": 2222,
      "adventures</w>": 2223,
      "emergency</w>": 2224,
      "strategies</w>": 2225,
      "bu": 2226,
      "slic": 2227,
      "af": 2228,
      "##5method": 2229,
      "##0method": 2230,
      "combines</w>": 2231,
      "dic": 2232,
      "##iging</w>": 2233,
      "##acing</w>": 2234,
      "##ibing</w>": 2235,
      "carro": 2236,
      "jul": 2237,
      "##oise</w>": 2238,
      "##ienne</w>": 2239,
      "##unoise</w>": 2240,
      "celery</w>": 2241,
      "brunoise</w>": 2242,
      "after</w>": 2243,
      "julienne</w>": 2244,
      "cit": 2245,
      "##ges</w>": 2246,
      "slicing</w>": 2247,
      "##rus</w>": 2248,
      "chopping</w>": 2249,
      "carrots</w>": 2250,
      "citrus</w>": 2251,
      "oran": 2252,
      "seg": 2253,
      "trim": 2254,
      "zesting</w>": 2255,
      "##ming</w>": 2256,
      "##men": 2257,
      "##terf": 2258,
      "##lying</w>": 2259,
      "##eat": 2260,
      "##eting</w>": 2261,
      "mincing</w>": 2262,
      "filleting</w>": 2263,
      "butterf": 2264,
      "cleaning</w>": 2265,
      "oranges</w>": 2266,
      "segmen": 2267,
      "trimming</w>": 2268,
      "butterflying</w>": 2269,
      "segmenting</w>": 2270,
      "du": 2271,
      "##sea": 2272,
      "##zes": 2273,
      "##istir": 2274,
      "##isear": 2275,
      "hu": 2276,
      "lu": 2277,
      "fu": 2278,
      "gu": 2279,
      "ku": 2280,
      "mu": 2281,
      "##eging</w>": 2282,
      "bake": 2283,
      "megamix": 2284,
      "ultrag": 2285,
      "supergrill": 2286,
      "superbak": 2287,
      "supermix": 2288,
      "ultramix": 2289,
      "megagrill": 2290,
      "megabak": 2291,
      "ultrabak": 2292,
      "##cook</w>": 2293,
      "ultragrill": 2294,
      "ne": 2295,
      "new</w>": 2296,
      "tb": 2297,
      "##mber</w>": 2298,
      "##we": 2299,
      "##du": 2300,
      "##giv": 2301,
      "underst": 2302,
      "##ween</w>": 2303,
      "##giving</w>": 2304,
      "easter</w>": 2305,
      "hallo": 2306,
      "year</w>": 2307,
      "##ma": 2308,
      "##rist": 2309,
      "##sgiving</w>": 2310,
      "##ksgiving</w>": 2311,
      "than": 2312,
      "christ": 2313,
      "##une</w>": 2314,
      "valent": 2315,
      "july</w>": 2316,
      "halloween</w>": 2317,
      "##mas</w>": 2318,
      "thanksgiving</w>": 2319,
      "christmas</w>": 2320,
      "valentine</w>": 2321,
      "megasteam": 2322,
      "supersteam": 2323,
      "ultrasteam": 2324,
      "ultrafry": 2325,
      "megafry": 2326,
      "superfry": 2327,
      "gradu": 2328,
      "au": 2329,
      "back</w>": 2330,
      "dec": 2331,
      "febr": 2332,
      "fath": 2333,
      "go": 2334,
      "jo": 2335,
      "jan": 2336,
      "june</w>": 2337,
      "may</w>": 2338,
      "nov": 2339,
      "oct": 2340,
      "rec": 2341,
      "sep": 2342,
      "##ti</w>": 2343,
      "##ties</w>": 2344,
      "##ober</w>": 2345,
      "##rying</w>": 2346,
      "##ril</w>": 2347,
      "##lice</w>": 2348,
      "##nics</w>": 2349,
      "##gust</w>": 2350,
      "##eamer</w>": 2351,
      "##aminc": 2352,
      "##tember</w>": 2353,
      "##eee</w>": 2354,
      "##igrill": 2355,
      "march</w>": 2356,
      "mother</w>": 2357,
      "##epend": 2358,
      "##ook</w>": 2359,
      "independ": 2360,
      "underf": 2361,
      "microc": 2362,
      "parties</w>": 2363,
      "##aging</w>": 2364,
      "april</w>": 2365,
      "picnics</w>": 2366,
      "beach</w>": 2367,
      "##imelt": 2368,
      "overf": 2369,
      "graduation</w>": 2370,
      "august</w>": 2371,
      "december</w>": 2372,
      "february</w>": 2373,
      "father</w>": 2374,
      "january</w>": 2375,
      "november</w>": 2376,
      "october</w>": 2377,
      "september</w>": 2378,
      "independence</w>": 2379,
      "salt</w>": 2380,
      "best</w>": 2381,
      "bef": 2382,
      "before</w>": 2383,
      "##pper</w>": 2384,
      "pepper</w>": 2385,
      "superboil": 2386,
      "megaboil": 2387,
      "ultraboil": 2388,
      "use</w>": 2389,
      "##sti": 2390,
      "##roas": 2391,
      "##roaster</w>": 2392,
      "superroast": 2393,
      "supercook": 2394,
      "ultraroast": 2395,
      "ultracook": 2396,
      "megaroast": 2397,
      "megacook": 2398,
      "bi": 2399,
      "##ial</w>": 2400,
      "sm": 2401,
      "##ick": 2402,
      "bc": 2403,
      "ci": 2404,
      "fast": 2405,
      "gi": 2406,
      "hi": 2407,
      "ji": 2408,
      "tc": 2409,
      "##ces</w>": 2410,
      "##pre": 2411,
      "##mt</w>": 2412,
      "##mi</w>": 2413,
      "##ymix</w>": 2414,
      "##work</w>": 2415,
      "##erial</w>": 2416,
      "##artc": 2417,
      "rest</w>": 2418,
      "resist": 2419,
      "quick": 2420,
      "bakeing</w>": 2421,
      "##cterial</w>": 2422,
      "preping</w>": 2423,
      "prepwork</w>": 2424,
      "easymix</w>": 2425,
      "##off</w>": 2426,
      "cookout</w>": 2427,
      "##down</w>": 2428,
      "mixup</w>": 2429,
      "anti</w>": 2430,
      "ounces</w>": 2431,
      "tablespoons</w>": 2432,
      "slowbake</w>": 2433,
      "bacterial</w>": 2434,
      "choping</w>": 2435,
      "chopdown</w>": 2436,
      "bakeoff</w>": 2437,
      "smartc": 2438,
      "fastpre": 2439,
      "resistant</w>": 2440,
      "quickcook</w>": 2441,
      "smartchop</w>": 2442,
      "fastprep</w>": 2443,
      "15</w>": 2444,
      "##isea": 2445,
      "when</w>": 2446,
      "17</w>": 2447,
      "16</w>": 2448,
      "19</w>": 2449,
      "18</w>": 2450,
      "27</w>": 2451,
      "23</w>": 2452,
      "24</w>": 2453,
      "26</w>": 2454,
      "29</w>": 2455,
      "22</w>": 2456,
      "21</w>": 2457,
      "20</w>": 2458,
      "28</w>": 2459,
      "##illess</w>": 2460,
      "##rowned</w>": 2461,
      "##ok</w>": 2462,
      "##frying</w>": 2463,
      "date</w>": 2464,
      "fa": 2465,
      "ga": 2466,
      "##ee</w>": 2467,
      "##whiping</w>": 2468,
      "##whiply</w>": 2469,
      "##whiped</w>": 2470,
      "##whipable</w>": 2471,
      "##whipful</w>": 2472,
      "##whiper</w>": 2473,
      "##whipless</w>": 2474,
      "##whipest</w>": 2475,
      "##whiption</w>": 2476,
      "##whipness</w>": 2477,
      "sun": 2478,
      "sunday</w>": 2479,
      "sli": 2480,
      "ccc": 2481,
      "ha": 2482,
      "hy": 2483,
      "ka": 2484,
      "ll</w>": 2485,
      "##cce</w>": 2486,
      "##iice</w>": 2487,
      "##ar</w>": 2488,
      "##kt</w>": 2489,
      "##km</w>": 2490,
      "##ki</w>": 2491,
      "cooook</w>": 2492,
      "coook</w>": 2493,
      "##igrant</w>": 2494,
      "##andmo": 2495,
      "grandmo": 2496,
      "teaching</w>": 2497,
      "immigrant</w>": 2498,
      "regional</w>": 2499,
      "hyper": 2500,
      "grandmother</w>": 2501,
      "##dicely</w>": 2502,
      "##diceed</w>": 2503,
      "##diceing</w>": 2504,
      "##diceful</w>": 2505,
      "##diceest</w>": 2506,
      "##diceer</w>": 2507,
      "##dicetion</w>": 2508,
      "##diceness</w>": 2509,
      "##diceable</w>": 2510,
      "##diceless</w>": 2511,
      "##roastly</w>": 2512,
      "##boiling</w>": 2513,
      "##zester</w>": 2514,
      "##isti": 2515,
      "##izest": 2516,
      "##eroast": 2517,
      "##zesting</w>": 2518,
      "##zested</w>": 2519,
      "##zestable</w>": 2520,
      "##zestful</w>": 2521,
      "##zestest</w>": 2522,
      "##zesttion</w>": 2523,
      "##zestness</w>": 2524,
      "basics</w>": 2525,
      "##zestly</w>": 2526,
      "##zestless</w>": 2527,
      "##di": 2528,
      "##ach</w>": 2529,
      "##browned</w>": 2530,
      "prest": 2531,
      "##beatly</w>": 2532,
      "##beater</w>": 2533,
      "##beatless</w>": 2534,
      "##beating</w>": 2535,
      "##beated</w>": 2536,
      "##browning</w>": 2537,
      "##brownly</w>": 2538,
      "##brownable</w>": 2539,
      "##brownful</w>": 2540,
      "##browner</w>": 2541,
      "##brownless</w>": 2542,
      "##brownest</w>": 2543,
      "##browntion</w>": 2544,
      "##brownness</w>": 2545,
      "##folded</w>": 2546,
      "##foldable</w>": 2547,
      "##foldful</w>": 2548,
      "##foldless</w>": 2549,
      "##foldest</w>": 2550,
      "##foldtion</w>": 2551,
      "##foldness</w>": 2552,
      "##beatable</w>": 2553,
      "##beatful</w>": 2554,
      "##beatest</w>": 2555,
      "##beattion</w>": 2556,
      "##beatness</w>": 2557,
      "##cooking</w>": 2558,
      "##cooked</w>": 2559,
      "##boilable</w>": 2560,
      "##boilless</w>": 2561,
      "##folding</w>": 2562,
      "##foldly</w>": 2563,
      "##folder</w>": 2564,
      "making</w>": 2565,
      "##atur": 2566,
      "protein</w>": 2567,
      "sub": 2568,
      "microw": 2569,
      "101</w>": 2570,
      "##ooking</w>": 2571,
      "##ooked</w>": 2572,
      "##id</w>": 2573,
      "ac": 2574,
      "##ink</w>": 2575,
      "over</w>": 2576,
      "##dium</w>": 2577,
      "bal": 2578,
      "process</w>": 2579,
      "base</w>": 2580,
      "acid</w>": 2581,
      "den": 2582,
      "ferm": 2583,
      "gel": 2584,
      "pred": 2585,
      "pai": 2586,
      "##fer</w>": 2587,
      "##iniz": 2588,
      "##itute</w>": 2589,
      "##atiniz": 2590,
      "##anding</w>": 2591,
      "##elt": 2592,
      "progrill": 2593,
      "probak": 2594,
      "promix": 2595,
      "prochop": 2596,
      "prominc": 2597,
      "proslic": 2598,
      "reslic": 2599,
      "starch</w>": 2600,
      "pregrill": 2601,
      "prebak": 2602,
      "premix": 2603,
      "preminc": 2604,
      "rebak": 2605,
      "minichop": 2606,
      "minislic": 2607,
      "minimix": 2608,
      "miniminc": 2609,
      "minigrill": 2610,
      "##fication</w>": 2611,
      "leaven": 2612,
      "prechop": 2613,
      "preslic": 2614,
      "overgrill": 2615,
      "overbak": 2616,
      "overmix": 2617,
      "overchop": 2618,
      "overminc": 2619,
      "overslic": 2620,
      "agents</w>": 2621,
      "ungrill": 2622,
      "unbak": 2623,
      "unmix": 2624,
      "unchop": 2625,
      "unminc": 2626,
      "unslic": 2627,
      "megaz": 2628,
      "megamel": 2629,
      "megaminc": 2630,
      "superchop": 2631,
      "superminc": 2632,
      "superslic": 2633,
      "undic": 2634,
      "nongrill": 2635,
      "nonbak": 2636,
      "nonmix": 2637,
      "nonchop": 2638,
      "nonminc": 2639,
      "nonslic": 2640,
      "semichop": 2641,
      "semislic": 2642,
      "semimix": 2643,
      "semiminc": 2644,
      "semigrill": 2645,
      "##entation</w>": 2646,
      "microgrill": 2647,
      "microbak": 2648,
      "micromix": 2649,
      "microminc": 2650,
      "microslic": 2651,
      "ultramel": 2652,
      "ultraminc": 2653,
      "emulsification</w>": 2654,
      "caramelization</w>": 2655,
      "##stitute</w>": 2656,
      "##roasting</w>": 2657,
      "##roasted</w>": 2658,
      "##roastable</w>": 2659,
      "##roastful</w>": 2660,
      "##roastless</w>": 2661,
      "##roastest</w>": 2662,
      "##roasttion</w>": 2663,
      "##roastness</w>": 2664,
      "ultrachop": 2665,
      "antigrill": 2666,
      "antibak": 2667,
      "undergrill": 2668,
      "underbak": 2669,
      "underchop": 2670,
      "underslic": 2671,
      "multigrill": 2672,
      "multibak": 2673,
      "antichop": 2674,
      "antislic": 2675,
      "antimix": 2676,
      "antiminc": 2677,
      "107</w>": 2678,
      "103</w>": 2679,
      "104</w>": 2680,
      "106</w>": 2681,
      "105</w>": 2682,
      "109</w>": 2683,
      "102</w>": 2684,
      "100</w>": 2685,
      "108</w>": 2686,
      "187</w>": 2687,
      "183</w>": 2688,
      "184</w>": 2689,
      "186</w>": 2690,
      "185</w>": 2691,
      "189</w>": 2692,
      "182</w>": 2693,
      "181</w>": 2694,
      "180</w>": 2695,
      "188</w>": 2696,
      "157</w>": 2697,
      "153</w>": 2698,
      "154</w>": 2699,
      "156</w>": 2700,
      "155</w>": 2701,
      "159</w>": 2702,
      "152</w>": 2703,
      "151</w>": 2704,
      "150</w>": 2705,
      "158</w>": 2706,
      "167</w>": 2707,
      "163</w>": 2708,
      "164</w>": 2709,
      "166</w>": 2710,
      "165</w>": 2711,
      "169</w>": 2712,
      "162</w>": 2713,
      "161</w>": 2714,
      "160</w>": 2715,
      "168</w>": 2716,
      "127</w>": 2717,
      "123</w>": 2718,
      "124</w>": 2719,
      "126</w>": 2720,
      "125</w>": 2721,
      "129</w>": 2722,
      "122</w>": 2723,
      "121</w>": 2724,
      "120</w>": 2725,
      "128</w>": 2726,
      "147</w>": 2727,
      "143</w>": 2728,
      "144</w>": 2729,
      "146</w>": 2730,
      "145</w>": 2731,
      "149</w>": 2732,
      "142</w>": 2733,
      "141</w>": 2734,
      "140</w>": 2735,
      "148</w>": 2736,
      "177</w>": 2737,
      "173</w>": 2738,
      "174</w>": 2739,
      "176</w>": 2740,
      "175</w>": 2741,
      "179</w>": 2742,
      "172</w>": 2743,
      "171</w>": 2744,
      "170</w>": 2745,
      "178</w>": 2746,
      "197</w>": 2747,
      "193</w>": 2748,
      "194</w>": 2749,
      "196</w>": 2750,
      "195</w>": 2751,
      "199</w>": 2752,
      "192</w>": 2753,
      "191</w>": 2754,
      "190</w>": 2755,
      "198</w>": 2756,
      "117</w>": 2757,
      "113</w>": 2758,
      "114</w>": 2759,
      "116</w>": 2760,
      "115</w>": 2761,
      "119</w>": 2762,
      "112</w>": 2763,
      "111</w>": 2764,
      "110</w>": 2765,
      "118</w>": 2766,
      "137</w>": 2767,
      "133</w>": 2768,
      "134</w>": 2769,
      "136</w>": 2770,
      "135</w>": 2771,
      "139</w>": 2772,
      "132</w>": 2773,
      "131</w>": 2774,
      "130</w>": 2775,
      "138</w>": 2776,
      "multichop": 2777,
      "multislic": 2778,
      "multimix": 2779,
      "multiminc": 2780,
      "##boilly</w>": 2781,
      "##boiled</w>": 2782,
      "##boilful</w>": 2783,
      "##boiler</w>": 2784,
      "##boilest</w>": 2785,
      "##boiltion</w>": 2786,
      "##boilness</w>": 2787,
      "200</w>": 2788,
      "transfer</w>": 2789,
      "minibak": 2790,
      "semibak": 2791,
      "megachop": 2792,
      "regrill": 2793,
      "remix": 2794,
      "reminc": 2795,
      "undermix": 2796,
      "underminc": 2797,
      "megaslic": 2798,
      "ultraslic": 2799,
      "understanding</w>": 2800,
      "rechop": 2801,
      "microchop": 2802,
      "hypercook": 2803,
      "##aturation</w>": 2804,
      "substitute</w>": 2805,
      "microwhip": 2806,
      "balance</w>": 2807,
      "denaturation</w>": 2808,
      "fermentation</w>": 2809,
      "gelatiniz": 2810,
      "predic": 2811,
      "pairing</w>": 2812,
      "leavening</w>": 2813,
      "gelatinization</w>": 2814,
      "so</w>": 2815,
      "than</w>": 2816,
      "each</w>": 2817,
      "get</w>": 2818,
      "key</w>": 2819,
      "never</w>": 2820,
      "take</w>": 2821,
      "ve</w>": 2822,
      "think</w>": 2823,
      "medium</w>": 2824,
      "worry</w>": 2825,
      "tried</w>": 2826,
      "muc": 2827,
      "much</w>": 2828,
      "##orou": 2829,
      "thorou": 2830,
      "##ular</w>": 2831,
      "adding</w>": 2832,
      "##ghly</w>": 2833,
      "regular</w>": 2834,
      "thoroughly</w>": 2835,
      "main</w>": 2836,
      "prosteam": 2837,
      "prefry": 2838,
      "refry": 2839,
      "profry": 2840,
      "ministeam": 2841,
      "oversteam": 2842,
      "unfry": 2843,
      "unsteam": 2844,
      "nonfry": 2845,
      "nonsteam": 2846,
      "semisteam": 2847,
      "microfry": 2848,
      "microsteam": 2849,
      "antifry": 2850,
      "multifry": 2851,
      "antisteam": 2852,
      "multisteam": 2853,
      "megabrown": 2854,
      "ultrabrown": 2855,
      "resteam": 2856,
      "minifry": 2857,
      "semifry": 2858,
      "minibrown": 2859,
      "semibrown": 2860,
      "understeam": 2861,
      "underfry": 2862,
      "overfry": 2863,
      "presteam": 2864,
      "impres": 2865,
      "al": 2866,
      "for": 2867,
      "add</w>": 2868,
      "##ood</w>": 2869,
      "forget</w>": 2870,
      "per</w>": 2871,
      "pers": 2872,
      "set</w>": 2873,
      "procook": 2874,
      "minicook": 2875,
      "precook": 2876,
      "overcook": 2877,
      "uncook": 2878,
      "noncook": 2879,
      "semicook": 2880,
      "undercook": 2881,
      "anticook": 2882,
      "multicook": 2883,
      "recook": 2884,
      "microcook": 2885,
      "person</w>": 2886,
      "##steamer</w>": 2887,
      "later</w>": 2888,
      "##oiling</w>": 2889,
      "asi": 2890,
      "gues": 2891,
      "men": 2892,
      "out</w>": 2893,
      "##tal</w>": 2894,
      "##ude</w>": 2895,
      "##ses</w>": 2896,
      "##ay": 2897,
      "##way": 2898,
      "total</w>": 2899,
      "calls</w>": 2900,
      "include</w>": 2901,
      "impresses</w>": 2902,
      "alway": 2903,
      "aside</w>": 2904,
      "guests</w>": 2905,
      "menu</w>": 2906,
      "always</w>": 2907,
      "profold": 2908,
      "##meltly</w>": 2909,
      "##melter</w>": 2910,
      "##meltless</w>": 2911,
      "##melting</w>": 2912,
      "##melted</w>": 2913,
      "miniboil": 2914,
      "semiboil": 2915,
      "##meltable</w>": 2916,
      "##meltful</w>": 2917,
      "##meltest</w>": 2918,
      "##melttion</w>": 2919,
      "##meltness</w>": 2920,
      "superfold": 2921,
      "underfold": 2922,
      "overfold": 2923,
      "or": 2924,
      "##oking</w>": 2925,
      "looking</w>": 2926,
      "choo": 2927,
      "bb": 2928,
      "bbake</w>": 2929,
      "cc": 2930,
      "ccook</w>": 2931,
      "dd": 2932,
      "ddd": 2933,
      "mm": 2934,
      "mmix</w>": 2935,
      "sss": 2936,
      "ssl": 2937,
      "##iix</w>": 2938,
      "##hhop</w>": 2939,
      "##llice</w>": 2940,
      "##aake</w>": 2941,
      "##kk</w>": 2942,
      "##kke</w>": 2943,
      "##xx</w>": 2944,
      "##tizer</w>": 2945,
      "miix</w>": 2946,
      "miiix</w>": 2947,
      "chhop</w>": 2948,
      "chhhop</w>": 2949,
      "bakke</w>": 2950,
      "bakeee</w>": 2951,
      "bakkke</w>": 2952,
      "chooo": 2953,
      "sllice</w>": 2954,
      "slllice</w>": 2955,
      "cookk</w>": 2956,
      "cookkk</w>": 2957,
      "diice</w>": 2958,
      "diiice</w>": 2959,
      "##ocing</w>": 2960,
      "mixx</w>": 2961,
      "mixxx</w>": 2962,
      "baake</w>": 2963,
      "baaake</w>": 2964,
      "chopp</w>": 2965,
      "choppp</w>": 2966,
      "slicce</w>": 2967,
      "sliceee</w>": 2968,
      "slicee</w>": 2969,
      "sliccce</w>": 2970,
      "dicce</w>": 2971,
      "diceee</w>": 2972,
      "dicee</w>": 2973,
      "diccce</w>": 2974,
      "bakee</w>": 2975,
      "sliice</w>": 2976,
      "sliiice</w>": 2977,
      "ccchop</w>": 2978,
      "cccook</w>": 2979,
      "choop</w>": 2980,
      "bbbake</w>": 2981,
      "cchop</w>": 2982,
      "ddice</w>": 2983,
      "dddice</w>": 2984,
      "mmmix</w>": 2985,
      "ssslice</w>": 2986,
      "sslice</w>": 2987,
      "chooop</w>": 2988,
      "good</w>": 2989,
      "go</w>": 2990,
      "##its</w>": 2991,
      "just</w>": 2992,
      "ready</w>": 2993,
      "fits</w>": 2994,
      "not</w>": 2995,
      "reroast": 2996,
      "version</w>": 2997,
      "##ually</w>": 2998,
      "##inal</w>": 2999,
      "usually</w>": 3000,
      "prostir": 3001,
      "prosear": 3002,
      "restir": 3003,
      "resear": 3004,
      "##iginal</w>": 3005,
      "ministir": 3006,
      "minisear": 3007,
      "minizest": 3008,
      "prestir": 3009,
      "presear": 3010,
      "overstir": 3011,
      "oversear": 3012,
      "unstir": 3013,
      "unsear": 3014,
      "superstir": 3015,
      "supersear": 3016,
      "nonstir": 3017,
      "nonsear": 3018,
      "semistir": 3019,
      "semisear": 3020,
      "semizest": 3021,
      "microstir": 3022,
      "microsear": 3023,
      "##stired</w>": 3024,
      "understir": 3025,
      "undersear": 3026,
      "tastes</w>": 3027,
      "antistir": 3028,
      "antisear": 3029,
      "preroast": 3030,
      "multistir": 3031,
      "multisear": 3032,
      "recipe8": 3033,
      "recipe5": 3034,
      "recipe6": 3035,
      "recipe2": 3036,
      "recipe4": 3037,
      "recipe7": 3038,
      "recipe9": 3039,
      "recipe1": 3040,
      "recipe3": 3041,
      "options</w>": 3042,
      "megastir": 3043,
      "megasear": 3044,
      "ultrastir": 3045,
      "ultrasear": 3046,
      "##seared</w>": 3047,
      "##searing</w>": 3048,
      "##searer</w>": 3049,
      "##searest</w>": 3050,
      "##stiring</w>": 3051,
      "##stirer</w>": 3052,
      "##stirest</w>": 3053,
      "megazest": 3054,
      "original</w>": 3055,
      "som": 3056,
      "##ething</w>": 3057,
      "beginners</w>": 3058,
      "something</w>": 3059,
      "bec": 3060,
      "nature</w>": 3061,
      "##ns</w>": 3062,
      "means</w>": 3063,
      "##asteamer</w>": 3064,
      "weeknights</w>": 3065,
      "become</w>": 3066,
      "350</w>": 3067,
      "450</w>": 3068,
      "37</w>": 3069,
      "33</w>": 3070,
      "34</w>": 3071,
      "36</w>": 3072,
      "35</w>": 3073,
      "39</w>": 3074,
      "32</w>": 3075,
      "31</w>": 3076,
      "38</w>": 3077,
      "47</w>": 3078,
      "43</w>": 3079,
      "44</w>": 3080,
      "46</w>": 3081,
      "45</w>": 3082,
      "49</w>": 3083,
      "42</w>": 3084,
      "41</w>": 3085,
      "40</w>": 3086,
      "48</w>": 3087,
      "57</w>": 3088,
      "53</w>": 3089,
      "54</w>": 3090,
      "56</w>": 3091,
      "55</w>": 3092,
      "50": 3093,
      "59</w>": 3094,
      "52</w>": 3095,
      "51</w>": 3096,
      "50</w>": 3097,
      "58</w>": 3098,
      "67</w>": 3099,
      "63</w>": 3100,
      "64</w>": 3101,
      "66</w>": 3102,
      "65</w>": 3103,
      "69</w>": 3104,
      "62</w>": 3105,
      "61</w>": 3106,
      "60</w>": 3107,
      "68</w>": 3108,
      "77</w>": 3109,
      "73</w>": 3110,
      "74</w>": 3111,
      "76</w>": 3112,
      "79</w>": 3113,
      "72</w>": 3114,
      "71</w>": 3115,
      "70</w>": 3116,
      "78</w>": 3117,
      "87</w>": 3118,
      "83</w>": 3119,
      "84</w>": 3120,
      "86</w>": 3121,
      "85</w>": 3122,
      "89</w>": 3123,
      "82</w>": 3124,
      "81</w>": 3125,
      "80</w>": 3126,
      "88</w>": 3127,
      "97</w>": 3128,
      "93</w>": 3129,
      "94</w>": 3130,
      "96</w>": 3131,
      "95</w>": 3132,
      "99</w>": 3133,
      "92</w>": 3134,
      "91</w>": 3135,
      "90</w>": 3136,
      "98</w>": 3137,
      "##ematic</w>": 3138,
      "##eizer</w>": 3139,
      "##eared</w>": 3140,
      "##earing</w>": 3141,
      "##earer</w>": 3142,
      "##earest</w>": 3143,
      "##tiring</w>": 3144,
      "##tirer</w>": 3145,
      "##tirest</w>": 3146,
      "minimel": 3147,
      "minimelt": 3148,
      "semimel": 3149,
      "semimelt": 3150,
      "antimel": 3151,
      "antimelt": 3152,
      "multimel": 3153,
      "multimelt": 3154,
      "megabea": 3155,
      "megabeat": 3156,
      "ultrabea": 3157,
      "ultrabeat": 3158,
      "207</w>": 3159,
      "203</w>": 3160,
      "204</w>": 3161,
      "206</w>": 3162,
      "205</w>": 3163,
      "209</w>": 3164,
      "202</w>": 3165,
      "201</w>": 3166,
      "208</w>": 3167,
      "357</w>": 3168,
      "353</w>": 3169,
      "354</w>": 3170,
      "356</w>": 3171,
      "355</w>": 3172,
      "359</w>": 3173,
      "352</w>": 3174,
      "351</w>": 3175,
      "358</w>": 3176,
      "457</w>": 3177,
      "453</w>": 3178,
      "454</w>": 3179,
      "456</w>": 3180,
      "455</w>": 3181,
      "459</w>": 3182,
      "452</w>": 3183,
      "451</w>": 3184,
      "458</w>": 3185,
      "087</w>": 3186,
      "083</w>": 3187,
      "084</w>": 3188,
      "086</w>": 3189,
      "085</w>": 3190,
      "089</w>": 3191,
      "082</w>": 3192,
      "081</w>": 3193,
      "080</w>": 3194,
      "088</w>": 3195,
      "057</w>": 3196,
      "053</w>": 3197,
      "054</w>": 3198,
      "056</w>": 3199,
      "055</w>": 3200,
      "059</w>": 3201,
      "052</w>": 3202,
      "051</w>": 3203,
      "050</w>": 3204,
      "058</w>": 3205,
      "067</w>": 3206,
      "063</w>": 3207,
      "064</w>": 3208,
      "066</w>": 3209,
      "065</w>": 3210,
      "069</w>": 3211,
      "062</w>": 3212,
      "061</w>": 3213,
      "060</w>": 3214,
      "068</w>": 3215,
      "027</w>": 3216,
      "023</w>": 3217,
      "024</w>": 3218,
      "026</w>": 3219,
      "025</w>": 3220,
      "029</w>": 3221,
      "022</w>": 3222,
      "021</w>": 3223,
      "020</w>": 3224,
      "028</w>": 3225,
      "047</w>": 3226,
      "043</w>": 3227,
      "044</w>": 3228,
      "046</w>": 3229,
      "045</w>": 3230,
      "049</w>": 3231,
      "042</w>": 3232,
      "041</w>": 3233,
      "040</w>": 3234,
      "048</w>": 3235,
      "077</w>": 3236,
      "073</w>": 3237,
      "074</w>": 3238,
      "076</w>": 3239,
      "075</w>": 3240,
      "079</w>": 3241,
      "072</w>": 3242,
      "071</w>": 3243,
      "070</w>": 3244,
      "078</w>": 3245,
      "097</w>": 3246,
      "093</w>": 3247,
      "094</w>": 3248,
      "096</w>": 3249,
      "095</w>": 3250,
      "099</w>": 3251,
      "092</w>": 3252,
      "091</w>": 3253,
      "090</w>": 3254,
      "098</w>": 3255,
      "017</w>": 3256,
      "013</w>": 3257,
      "014</w>": 3258,
      "016</w>": 3259,
      "015</w>": 3260,
      "019</w>": 3261,
      "012</w>": 3262,
      "011</w>": 3263,
      "010</w>": 3264,
      "018</w>": 3265,
      "037</w>": 3266,
      "033</w>": 3267,
      "034</w>": 3268,
      "036</w>": 3269,
      "035</w>": 3270,
      "039</w>": 3271,
      "032</w>": 3272,
      "031</w>": 3273,
      "030</w>": 3274,
      "038</w>": 3275,
      "287</w>": 3276,
      "283</w>": 3277,
      "284</w>": 3278,
      "286</w>": 3279,
      "285</w>": 3280,
      "289</w>": 3281,
      "282</w>": 3282,
      "281</w>": 3283,
      "280</w>": 3284,
      "288</w>": 3285,
      "257</w>": 3286,
      "253</w>": 3287,
      "254</w>": 3288,
      "256</w>": 3289,
      "255</w>": 3290,
      "259</w>": 3291,
      "252</w>": 3292,
      "251</w>": 3293,
      "250</w>": 3294,
      "258</w>": 3295,
      "267</w>": 3296,
      "263</w>": 3297,
      "264</w>": 3298,
      "266</w>": 3299,
      "265</w>": 3300,
      "269</w>": 3301,
      "262</w>": 3302,
      "261</w>": 3303,
      "260</w>": 3304,
      "268</w>": 3305,
      "227</w>": 3306,
      "223</w>": 3307,
      "224</w>": 3308,
      "226</w>": 3309,
      "225</w>": 3310,
      "229</w>": 3311,
      "222</w>": 3312,
      "221</w>": 3313,
      "220</w>": 3314,
      "228</w>": 3315,
      "247</w>": 3316,
      "243</w>": 3317,
      "244</w>": 3318,
      "246</w>": 3319,
      "245</w>": 3320,
      "249</w>": 3321,
      "242</w>": 3322,
      "241</w>": 3323,
      "240</w>": 3324,
      "248</w>": 3325,
      "277</w>": 3326,
      "273</w>": 3327,
      "274</w>": 3328,
      "276</w>": 3329,
      "275</w>": 3330,
      "279</w>": 3331,
      "272</w>": 3332,
      "271</w>": 3333,
      "270</w>": 3334,
      "278</w>": 3335,
      "297</w>": 3336,
      "293</w>": 3337,
      "294</w>": 3338,
      "296</w>": 3339,
      "295</w>": 3340,
      "299</w>": 3341,
      "292</w>": 3342,
      "291</w>": 3343,
      "290</w>": 3344,
      "298</w>": 3345,
      "217</w>": 3346,
      "213</w>": 3347,
      "214</w>": 3348,
      "216</w>": 3349,
      "215</w>": 3350,
      "219</w>": 3351,
      "212</w>": 3352,
      "211</w>": 3353,
      "210</w>": 3354,
      "218</w>": 3355,
      "237</w>": 3356,
      "233</w>": 3357,
      "234</w>": 3358,
      "236</w>": 3359,
      "235</w>": 3360,
      "239</w>": 3361,
      "232</w>": 3362,
      "231</w>": 3363,
      "230</w>": 3364,
      "238</w>": 3365,
      "387</w>": 3366,
      "383</w>": 3367,
      "384</w>": 3368,
      "386</w>": 3369,
      "385</w>": 3370,
      "389</w>": 3371,
      "382</w>": 3372,
      "381</w>": 3373,
      "380</w>": 3374,
      "388</w>": 3375,
      "367</w>": 3376,
      "363</w>": 3377,
      "364</w>": 3378,
      "366</w>": 3379,
      "365</w>": 3380,
      "369</w>": 3381,
      "362</w>": 3382,
      "361</w>": 3383,
      "360</w>": 3384,
      "368</w>": 3385,
      "327</w>": 3386,
      "323</w>": 3387,
      "324</w>": 3388,
      "326</w>": 3389,
      "325</w>": 3390,
      "329</w>": 3391,
      "322</w>": 3392,
      "321</w>": 3393,
      "320</w>": 3394,
      "328</w>": 3395,
      "307</w>": 3396,
      "303</w>": 3397,
      "304</w>": 3398,
      "306</w>": 3399,
      "305</w>": 3400,
      "309</w>": 3401,
      "302</w>": 3402,
      "301</w>": 3403,
      "300</w>": 3404,
      "308</w>": 3405,
      "347</w>": 3406,
      "343</w>": 3407,
      "344</w>": 3408,
      "346</w>": 3409,
      "345</w>": 3410,
      "349</w>": 3411,
      "342</w>": 3412,
      "341</w>": 3413,
      "340</w>": 3414,
      "348</w>": 3415,
      "377</w>": 3416,
      "373</w>": 3417,
      "374</w>": 3418,
      "376</w>": 3419,
      "375</w>": 3420,
      "379</w>": 3421,
      "372</w>": 3422,
      "371</w>": 3423,
      "370</w>": 3424,
      "378</w>": 3425,
      "397</w>": 3426,
      "393</w>": 3427,
      "394</w>": 3428,
      "396</w>": 3429,
      "395</w>": 3430,
      "399</w>": 3431,
      "392</w>": 3432,
      "391</w>": 3433,
      "390</w>": 3434,
      "398</w>": 3435,
      "317</w>": 3436,
      "313</w>": 3437,
      "314</w>": 3438,
      "316</w>": 3439,
      "315</w>": 3440,
      "319</w>": 3441,
      "312</w>": 3442,
      "311</w>": 3443,
      "310</w>": 3444,
      "318</w>": 3445,
      "337</w>": 3446,
      "333</w>": 3447,
      "334</w>": 3448,
      "336</w>": 3449,
      "335</w>": 3450,
      "339</w>": 3451,
      "332</w>": 3452,
      "331</w>": 3453,
      "330</w>": 3454,
      "338</w>": 3455,
      "487</w>": 3456,
      "483</w>": 3457,
      "484</w>": 3458,
      "486</w>": 3459,
      "485</w>": 3460,
      "489</w>": 3461,
      "482</w>": 3462,
      "481</w>": 3463,
      "480</w>": 3464,
      "488</w>": 3465,
      "467</w>": 3466,
      "463</w>": 3467,
      "464</w>": 3468,
      "466</w>": 3469,
      "465</w>": 3470,
      "469</w>": 3471,
      "462</w>": 3472,
      "461</w>": 3473,
      "460</w>": 3474,
      "468</w>": 3475,
      "427</w>": 3476,
      "423</w>": 3477,
      "424</w>": 3478,
      "426</w>": 3479,
      "425</w>": 3480,
      "429</w>": 3481,
      "422</w>": 3482,
      "421</w>": 3483,
      "420</w>": 3484,
      "428</w>": 3485,
      "407</w>": 3486,
      "403</w>": 3487,
      "404</w>": 3488,
      "406</w>": 3489,
      "405</w>": 3490,
      "409</w>": 3491,
      "402</w>": 3492,
      "401</w>": 3493,
      "400</w>": 3494,
      "408</w>": 3495,
      "447</w>": 3496,
      "443</w>": 3497,
      "444</w>": 3498,
      "446</w>": 3499,
      "445</w>": 3500,
      "449</w>": 3501,
      "442</w>": 3502,
      "441</w>": 3503,
      "440</w>": 3504,
      "448</w>": 3505,
      "477</w>": 3506,
      "473</w>": 3507,
      "474</w>": 3508,
      "476</w>": 3509,
      "475</w>": 3510,
      "479</w>": 3511,
      "472</w>": 3512,
      "471</w>": 3513,
      "470</w>": 3514,
      "478</w>": 3515,
      "497</w>": 3516,
      "493</w>": 3517,
      "494</w>": 3518,
      "496</w>": 3519,
      "495</w>": 3520,
      "499</w>": 3521,
      "492</w>": 3522,
      "491</w>": 3523,
      "490</w>": 3524,
      "498</w>": 3525,
      "417</w>": 3526,
      "413</w>": 3527,
      "414</w>": 3528,
      "416</w>": 3529,
      "415</w>": 3530,
      "419</w>": 3531,
      "412</w>": 3532,
      "411</w>": 3533,
      "410</w>": 3534,
      "418</w>": 3535,
      "437</w>": 3536,
      "433</w>": 3537,
      "434</w>": 3538,
      "436</w>": 3539,
      "435</w>": 3540,
      "439</w>": 3541,
      "432</w>": 3542,
      "431</w>": 3543,
      "430</w>": 3544,
      "438</w>": 3545,
      "007</w>": 3546,
      "003</w>": 3547,
      "004</w>": 3548,
      "006</w>": 3549,
      "005</w>": 3550,
      "009</w>": 3551,
      "002</w>": 3552,
      "001</w>": 3553,
      "008</w>": 3554,
      "minibea": 3555,
      "minibeat": 3556,
      "semibea": 3557,
      "semibeat": 3558,
      "remel": 3559,
      "remelt": 3560,
      "undermel": 3561,
      "undermelt": 3562,
      "##eator</w>": 3563,
      "##roastizer</w>": 3564,
      "megamelt": 3565,
      "ultramelt": 3566,
      "500</w>": 3567,
      "rero": 3568,
      "##oilable</w>": 3569,
      "##oilless</w>": 3570,
      "##icooking</w>": 3571,
      "##icooked</w>": 3572,
      "##olding</w>": 3573,
      "##oldly</w>": 3574,
      "##older</w>": 3575,
      "##istired</w>": 3576,
      "##isteamer</w>": 3577,
      "miniz": 3578,
      "minisea": 3579,
      "semiz": 3580,
      "semisea": 3581,
      "antisea": 3582,
      "prero": 3583,
      "multisea": 3584,
      "##istiring</w>": 3585,
      "##istirer</w>": 3586,
      "##istirest</w>": 3587,
      "onion</w>": 3588,
      "por": 3589,
      "portion</w>": 3590,
      "brt</w>": 3591,
      "brm</w>": 3592,
      "bofing</w>": 3593,
      "bicing</w>": 3594,
      "becing</w>": 3595,
      "babing</w>": 3596,
      "bucing</w>": 3597,
      "beking</w>": 3598,
      "beding</w>": 3599,
      "behing</w>": 3600,
      "bejing</w>": 3601,
      "befing</w>": 3602,
      "bebing</w>": 3603,
      "biging</w>": 3604,
      "bacing</w>": 3605,
      "bibing</w>": 3606,
      "bti</w>": 3607,
      "baging</w>": 3608,
      "bmt</w>": 3609,
      "bmi</w>": 3610,
      "bkt</w>": 3611,
      "bkm</w>": 3612,
      "bki</w>": 3613,
      "crt</w>": 3614,
      "crm</w>": 3615,
      "cicing</w>": 3616,
      "cecing</w>": 3617,
      "cabing</w>": 3618,
      "cucing</w>": 3619,
      "ceking</w>": 3620,
      "ceding</w>": 3621,
      "cehing</w>": 3622,
      "cejing</w>": 3623,
      "cefing</w>": 3624,
      "cebing</w>": 3625,
      "ciging</w>": 3626,
      "cibing</w>": 3627,
      "ceging</w>": 3628,
      "cti</w>": 3629,
      "cmt</w>": 3630,
      "cmi</w>": 3631,
      "ckt</w>": 3632,
      "ckm</w>": 3633,
      "cki</w>": 3634,
      "daking</w>": 3635,
      "dofing</w>": 3636,
      "decing</w>": 3637,
      "dabing</w>": 3638,
      "ducing</w>": 3639,
      "deking</w>": 3640,
      "deding</w>": 3641,
      "dehing</w>": 3642,
      "dejing</w>": 3643,
      "defing</w>": 3644,
      "debing</w>": 3645,
      "diging</w>": 3646,
      "dacing</w>": 3647,
      "dibing</w>": 3648,
      "faking</w>": 3649,
      "ficing</w>": 3650,
      "fecing</w>": 3651,
      "fabing</w>": 3652,
      "fucing</w>": 3653,
      "feking</w>": 3654,
      "feding</w>": 3655,
      "fehing</w>": 3656,
      "fejing</w>": 3657,
      "fefing</w>": 3658,
      "febing</w>": 3659,
      "figing</w>": 3660,
      "facing</w>": 3661,
      "feging</w>": 3662,
      "faging</w>": 3663,
      "gaking</w>": 3664,
      "gofing</w>": 3665,
      "gicing</w>": 3666,
      "gecing</w>": 3667,
      "gabing</w>": 3668,
      "gucing</w>": 3669,
      "geking</w>": 3670,
      "geding</w>": 3671,
      "gehing</w>": 3672,
      "gejing</w>": 3673,
      "gefing</w>": 3674,
      "gebing</w>": 3675,
      "giging</w>": 3676,
      "gacing</w>": 3677,
      "gibing</w>": 3678,
      "geging</w>": 3679,
      "gaging</w>": 3680,
      "gocing</w>": 3681,
      "haking</w>": 3682,
      "hicing</w>": 3683,
      "hecing</w>": 3684,
      "habing</w>": 3685,
      "hucing</w>": 3686,
      "heking</w>": 3687,
      "heding</w>": 3688,
      "hehing</w>": 3689,
      "hejing</w>": 3690,
      "hefing</w>": 3691,
      "hebing</w>": 3692,
      "hacing</w>": 3693,
      "hibing</w>": 3694,
      "heging</w>": 3695,
      "haging</w>": 3696,
      "jofing</w>": 3697,
      "jicing</w>": 3698,
      "jecing</w>": 3699,
      "jabing</w>": 3700,
      "jucing</w>": 3701,
      "jeking</w>": 3702,
      "jeding</w>": 3703,
      "jehing</w>": 3704,
      "jejing</w>": 3705,
      "jefing</w>": 3706,
      "jebing</w>": 3707,
      "jiging</w>": 3708,
      "jibing</w>": 3709,
      "jeging</w>": 3710,
      "jocing</w>": 3711,
      "kaking</w>": 3712,
      "kicing</w>": 3713,
      "kecing</w>": 3714,
      "kabing</w>": 3715,
      "kucing</w>": 3716,
      "keking</w>": 3717,
      "keding</w>": 3718,
      "kehing</w>": 3719,
      "kejing</w>": 3720,
      "kefing</w>": 3721,
      "kebing</w>": 3722,
      "kiging</w>": 3723,
      "kacing</w>": 3724,
      "kibing</w>": 3725,
      "keging</w>": 3726,
      "kti</w>": 3727,
      "kaging</w>": 3728,
      "kmt</w>": 3729,
      "kmi</w>": 3730,
      "laking</w>": 3731,
      "licing</w>": 3732,
      "lecing</w>": 3733,
      "labing</w>": 3734,
      "lucing</w>": 3735,
      "leking</w>": 3736,
      "leding</w>": 3737,
      "lehing</w>": 3738,
      "lejing</w>": 3739,
      "lefing</w>": 3740,
      "lebing</w>": 3741,
      "liging</w>": 3742,
      "lacing</w>": 3743,
      "libing</w>": 3744,
      "leging</w>": 3745,
      "laging</w>": 3746,
      "mecing</w>": 3747,
      "mabing</w>": 3748,
      "mucing</w>": 3749,
      "macing</w>": 3750,
      "mti</w>": 3751,
      "rti</w>": 3752,
      "rmt</w>": 3753,
      "rmi</w>": 3754,
      "rkt</w>": 3755,
      "rkm</w>": 3756,
      "rki</w>": 3757,
      "trt</w>": 3758,
      "trm</w>": 3759,
      "tti</w>": 3760,
      "tmt</w>": 3761,
      "tmi</w>": 3762,
      "tkt</w>": 3763,
      "tkm</w>": 3764,
      "tki</w>": 3765,
      "coking</w>": 3766,
      "coding</w>": 3767,
      "cohing</w>": 3768,
      "cojing</w>": 3769,
      "cofing</w>": 3770,
      "coging</w>": 3771,
      "cobing</w>": 3772,
      "cocing</w>": 3773,
      "hoking</w>": 3774,
      "hoding</w>": 3775,
      "hohing</w>": 3776,
      "hojing</w>": 3777,
      "hofing</w>": 3778,
      "hoging</w>": 3779,
      "hobing</w>": 3780,
      "hocing</w>": 3781,
      "foking</w>": 3782,
      "foding</w>": 3783,
      "fohing</w>": 3784,
      "fojing</w>": 3785,
      "fofing</w>": 3786,
      "foging</w>": 3787,
      "fobing</w>": 3788,
      "focing</w>": 3789,
      "meking</w>": 3790,
      "meding</w>": 3791,
      "mehing</w>": 3792,
      "mejing</w>": 3793,
      "mefing</w>": 3794,
      "mebing</w>": 3795,
      "sta": 3796,
      "miking</w>": 3797,
      "miding</w>": 3798,
      "mihing</w>": 3799,
      "mijing</w>": 3800,
      "mifing</w>": 3801,
      "miging</w>": 3802,
      "mibing</w>": 3803,
      "caking</w>": 3804,
      "cading</w>": 3805,
      "cahing</w>": 3806,
      "cafing</w>": 3807,
      "caging</w>": 3808,
      "cacing</w>": 3809,
      "low</w>": 3810,
      "loking</w>": 3811,
      "loding</w>": 3812,
      "lohing</w>": 3813,
      "lojing</w>": 3814,
      "lofing</w>": 3815,
      "loging</w>": 3816,
      "lobing</w>": 3817,
      "beging</w>": 3818,
      "locing</w>": 3819,
      "moking</w>": 3820,
      "moding</w>": 3821,
      "mohing</w>": 3822,
      "mojing</w>": 3823,
      "mofing</w>": 3824,
      "moging</w>": 3825,
      "mobing</w>": 3826,
      "mocing</w>": 3827,
      "higing</w>": 3828,
      "koking</w>": 3829,
      "koding</w>": 3830,
      "kohing</w>": 3831,
      "kojing</w>": 3832,
      "kofing</w>": 3833,
      "koging</w>": 3834,
      "kobing</w>": 3835,
      "kocing</w>": 3836,
      "jaking</w>": 3837,
      "jading</w>": 3838,
      "jahing</w>": 3839,
      "jajing</w>": 3840,
      "jafing</w>": 3841,
      "jaging</w>": 3842,
      "jacing</w>": 3843,
      "cajing</w>": 3844,
      "fiking</w>": 3845,
      "fiding</w>": 3846,
      "fihing</w>": 3847,
      "fijing</w>": 3848,
      "fifing</w>": 3849,
      "fibing</w>": 3850,
      "crk</w>": 3851,
      "cri</w>": 3852,
      "boking</w>": 3853,
      "boding</w>": 3854,
      "bohing</w>": 3855,
      "bojing</w>": 3856,
      "boging</w>": 3857,
      "bobing</w>": 3858,
      "bocing</w>": 3859,
      "meging</w>": 3860,
      "mading</w>": 3861,
      "mahing</w>": 3862,
      "majing</w>": 3863,
      "mafing</w>": 3864,
      "maging</w>": 3865,
      "micing</w>": 3866,
      "doking</w>": 3867,
      "doding</w>": 3868,
      "dohing</w>": 3869,
      "dojing</w>": 3870,
      "doging</w>": 3871,
      "dobing</w>": 3872,
      "docing</w>": 3873,
      "juking</w>": 3874,
      "juding</w>": 3875,
      "juhing</w>": 3876,
      "jujing</w>": 3877,
      "jufing</w>": 3878,
      "juging</w>": 3879,
      "jubing</w>": 3880,
      "diking</w>": 3881,
      "diding</w>": 3882,
      "dihing</w>": 3883,
      "dijing</w>": 3884,
      "difing</w>": 3885,
      "deging</w>": 3886,
      "dading</w>": 3887,
      "dahing</w>": 3888,
      "dajing</w>": 3889,
      "dafing</w>": 3890,
      "daging</w>": 3891,
      "trk</w>": 3892,
      "tri</w>": 3893,
      "lading</w>": 3894,
      "lahing</w>": 3895,
      "lajing</w>": 3896,
      "lafing</w>": 3897,
      "liking</w>": 3898,
      "liding</w>": 3899,
      "lihing</w>": 3900,
      "lijing</w>": 3901,
      "lifing</w>": 3902,
      "kiking</w>": 3903,
      "kiding</w>": 3904,
      "kihing</w>": 3905,
      "kijing</w>": 3906,
      "kifing</w>": 3907,
      "brk</w>": 3908,
      "bri</w>": 3909,
      "cuking</w>": 3910,
      "cuding</w>": 3911,
      "cuhing</w>": 3912,
      "cujing</w>": 3913,
      "cufing</w>": 3914,
      "cuging</w>": 3915,
      "cubing</w>": 3916,
      "bading</w>": 3917,
      "bahing</w>": 3918,
      "bajing</w>": 3919,
      "bafing</w>": 3920,
      "buking</w>": 3921,
      "buding</w>": 3922,
      "buhing</w>": 3923,
      "bujing</w>": 3924,
      "bufing</w>": 3925,
      "buging</w>": 3926,
      "bubing</w>": 3927,
      "duking</w>": 3928,
      "duding</w>": 3929,
      "duhing</w>": 3930,
      "dujing</w>": 3931,
      "dufing</w>": 3932,
      "duging</w>": 3933,
      "dubing</w>": 3934,
      "huking</w>": 3935,
      "huding</w>": 3936,
      "huhing</w>": 3937,
      "hujing</w>": 3938,
      "hufing</w>": 3939,
      "huging</w>": 3940,
      "hubing</w>": 3941,
      "luking</w>": 3942,
      "luding</w>": 3943,
      "luhing</w>": 3944,
      "lujing</w>": 3945,
      "lufing</w>": 3946,
      "luging</w>": 3947,
      "lubing</w>": 3948,
      "fuking</w>": 3949,
      "fuding</w>": 3950,
      "fuhing</w>": 3951,
      "fujing</w>": 3952,
      "fufing</w>": 3953,
      "fuging</w>": 3954,
      "fubing</w>": 3955,
      "guking</w>": 3956,
      "guding</w>": 3957,
      "guhing</w>": 3958,
      "gujing</w>": 3959,
      "gufing</w>": 3960,
      "guging</w>": 3961,
      "gubing</w>": 3962,
      "kuking</w>": 3963,
      "kuding</w>": 3964,
      "kuhing</w>": 3965,
      "kujing</w>": 3966,
      "kufing</w>": 3967,
      "kuging</w>": 3968,
      "kubing</w>": 3969,
      "muking</w>": 3970,
      "muding</w>": 3971,
      "muhing</w>": 3972,
      "mujing</w>": 3973,
      "mufing</w>": 3974,
      "muging</w>": 3975,
      "mubing</w>": 3976,
      "tbk</w>": 3977,
      "tbr</w>": 3978,
      "tbt</w>": 3979,
      "tbm</w>": 3980,
      "tbi</w>": 3981,
      "tbc</w>": 3982,
      "goking</w>": 3983,
      "goding</w>": 3984,
      "gohing</w>": 3985,
      "gojing</w>": 3986,
      "goging</w>": 3987,
      "gobing</w>": 3988,
      "joking</w>": 3989,
      "joding</w>": 3990,
      "johing</w>": 3991,
      "jojing</w>": 3992,
      "joging</w>": 3993,
      "jobing</w>": 3994,
      "biking</w>": 3995,
      "biding</w>": 3996,
      "bihing</w>": 3997,
      "bijing</w>": 3998,
      "bifing</w>": 3999,
      "bck</w>": 4000,
      "bcr</w>": 4001,
      "bct</w>": 4002,
      "bcm</w>": 4003,
      "bci</w>": 4004,
      "ciking</w>": 4005,
      "ciding</w>": 4006,
      "cihing</w>": 4007,
      "cijing</w>": 4008,
      "cifing</w>": 4009,
      "giking</w>": 4010,
      "giding</w>": 4011,
      "gihing</w>": 4012,
      "gijing</w>": 4013,
      "gifing</w>": 4014,
      "hiking</w>": 4015,
      "hiding</w>": 4016,
      "hihing</w>": 4017,
      "hijing</w>": 4018,
      "hifing</w>": 4019,
      "jiking</w>": 4020,
      "jiding</w>": 4021,
      "jihing</w>": 4022,
      "jijing</w>": 4023,
      "jifing</w>": 4024,
      "tck</w>": 4025,
      "tcr</w>": 4026,
      "tct</w>": 4027,
      "tcm</w>": 4028,
      "tci</w>": 4029,
      "fading</w>": 4030,
      "fahing</w>": 4031,
      "fajing</w>": 4032,
      "fafing</w>": 4033,
      "gading</w>": 4034,
      "gahing</w>": 4035,
      "gajing</w>": 4036,
      "gafing</w>": 4037,
      "hading</w>": 4038,
      "hahing</w>": 4039,
      "hajing</w>": 4040,
      "hafing</w>": 4041,
      "kading</w>": 4042,
      "kahing</w>": 4043,
      "kajing</w>": 4044,
      "kafing</w>": 4045,
      "##ic</w>": 4046,
      "##estly</w>": 4047,
      "##estless</w>": 4048,
      "buil": 4049,
      "##5method7</w>": 4050,
      "##5method3</w>": 4051,
      "##5method4</w>": 4052,
      "##5method6</w>": 4053,
      "##5method5</w>": 4054,
      "##5method9</w>": 4055,
      "##5method2</w>": 4056,
      "##5method1</w>": 4057,
      "##5method8</w>": 4058,
      "##0method7</w>": 4059,
      "##0method3</w>": 4060,
      "##0method4</w>": 4061,
      "##0method6</w>": 4062,
      "##0method5</w>": 4063,
      "##0method9</w>": 4064,
      "##0method2</w>": 4065,
      "##0method1</w>": 4066,
      "##0method8</w>": 4067,
      "size</w>": 4068,
      "##se</w>": 4069,
      "spice</w>": 4070,
      "##pping</w>": 4071,
      "minute</w>": 4072,
      "megasteamer</w>": 4073,
      "superroaster</w>": 4074,
      "superboiling</w>": 4075,
      "supercooking</w>": 4076,
      "supercooked</w>": 4077,
      "supersteamer</w>": 4078,
      "ultrasteamer</w>": 4079,
      "ultraroaster</w>": 4080,
      "ultrafrying</w>": 4081,
      "ultracooking</w>": 4082,
      "ultracooked</w>": 4083,
      "megaroaster</w>": 4084,
      "megafrying</w>": 4085,
      "megaboiling</w>": 4086,
      "ultraboiling</w>": 4087,
      "superfrying</w>": 4088,
      "megacooking</w>": 4089,
      "megacooked</w>": 4090,
      "megamixing</w>": 4091,
      "megamixed</w>": 4092,
      "megamixful</w>": 4093,
      "megamixer</w>": 4094,
      "megamixest</w>": 4095,
      "supergrilling</w>": 4096,
      "supergrilled</w>": 4097,
      "supergrillful</w>": 4098,
      "supergriller</w>": 4099,
      "supergrillest</w>": 4100,
      "superbakeed</w>": 4101,
      "superbakeing</w>": 4102,
      "superbakeful</w>": 4103,
      "superbakeest</w>": 4104,
      "superbakeer</w>": 4105,
      "supermixing</w>": 4106,
      "supermixed</w>": 4107,
      "supermixful</w>": 4108,
      "supermixer</w>": 4109,
      "supermixest</w>": 4110,
      "ultramixing</w>": 4111,
      "ultramixed</w>": 4112,
      "ultramixful</w>": 4113,
      "ultramixer</w>": 4114,
      "ultramixest</w>": 4115,
      "megagrilling</w>": 4116,
      "megagrilled</w>": 4117,
      "megagrillful</w>": 4118,
      "megagriller</w>": 4119,
      "megagrillest</w>": 4120,
      "megabakeed</w>": 4121,
      "megabakeing</w>": 4122,
      "megabakeful</w>": 4123,
      "megabakeest</w>": 4124,
      "megabakeer</w>": 4125,
      "ultrabakeed</w>": 4126,
      "ultrabakeing</w>": 4127,
      "ultrabakeful</w>": 4128,
      "ultrabakeest</w>": 4129,
      "ultrabakeer</w>": 4130,
      "ultragrilling</w>": 4131,
      "ultragrilled</w>": 4132,
      "ultragrillful</w>": 4133,
      "ultragriller</w>": 4134,
      "ultragrillest</w>": 4135,
      "megasteaming</w>": 4136,
      "megasteamed</w>": 4137,
      "megasteamful</w>": 4138,
      "megasteamest</w>": 4139,
      "supersteaming</w>": 4140,
      "supersteamed</w>": 4141,
      "supersteamful</w>": 4142,
      "supersteamest</w>": 4143,
      "ultrasteaming</w>": 4144,
      "ultrasteamed</w>": 4145,
      "ultrasteamful</w>": 4146,
      "ultrasteamest</w>": 4147,
      "ultrafryed</w>": 4148,
      "ultrafryful</w>": 4149,
      "ultrafryer</w>": 4150,
      "ultrafryest</w>": 4151,
      "megafryed</w>": 4152,
      "megafryful</w>": 4153,
      "megafryer</w>": 4154,
      "megafryest</w>": 4155,
      "superfryed</w>": 4156,
      "superfryful</w>": 4157,
      "superfryer</w>": 4158,
      "superfryest</w>": 4159,
      "superboiled</w>": 4160,
      "superboilful</w>": 4161,
      "superboiler</w>": 4162,
      "superboilest</w>": 4163,
      "megaboiled</w>": 4164,
      "megaboilful</w>": 4165,
      "megaboiler</w>": 4166,
      "megaboilest</w>": 4167,
      "ultraboiled</w>": 4168,
      "ultraboilful</w>": 4169,
      "ultraboiler</w>": 4170,
      "ultraboilest</w>": 4171,
      "superroasting</w>": 4172,
      "superroasted</w>": 4173,
      "superroastful</w>": 4174,
      "superroastest</w>": 4175,
      "supercookful</w>": 4176,
      "supercooker</w>": 4177,
      "supercookest</w>": 4178,
      "ultraroasting</w>": 4179,
      "ultraroasted</w>": 4180,
      "ultraroastful</w>": 4181,
      "ultraroastest</w>": 4182,
      "ultracookful</w>": 4183,
      "ultracooker</w>": 4184,
      "ultracookest</w>": 4185,
      "megaroasting</w>": 4186,
      "megaroasted</w>": 4187,
      "megaroastful</w>": 4188,
      "megaroastest</w>": 4189,
      "megacookful</w>": 4190,
      "megacooker</w>": 4191,
      "megacookest</w>": 4192,
      "bul": 4193,
      "##ples</w>": 4194,
      "##wder</w>": 4195,
      "powder</w>": 4196,
      "##age</w>": 4197,
      "staples</w>": 4198,
      "##ruc": 4199,
      "instruc": 4200,
      "instructions</w>": 4201,
      "pant": 4202,
      "##sp</w>": 4203,
      "##ash</w>": 4204,
      "##astly</w>": 4205,
      "##astired</w>": 4206,
      "pantry</w>": 4207,
      "oli": 4208,
      "oil</w>": 4209,
      "pac": 4210,
      "##gar</w>": 4211,
      "shopping</w>": 4212,
      "reduce</w>": 4213,
      "sugar</w>": 4214,
      "olive</w>": 4215,
      "ket": 4216,
      "pin": 4217,
      "si": 4218,
      "##el</w>": 4219,
      "##etizer</w>": 4220,
      "##ck": 4221,
      "##len": 4222,
      "cour": 4223,
      "##ato</w>": 4224,
      "##allen": 4225,
      "worthy</w>": 4226,
      "flour</w>": 4227,
      "appetizer</w>": 4228,
      "challen": 4229,
      "##tail</w>": 4230,
      "temp": 4231,
      "brand</w>": 4232,
      "barbecue</w>": 4233,
      "superroastizer</w>": 4234,
      "party</w>": 4235,
      "ultraroastizer</w>": 4236,
      "megaroastizer</w>": 4237,
      "stretch</w>": 4238,
      "megamixmatic</w>": 4239,
      "megamixator</w>": 4240,
      "megamixizer</w>": 4241,
      "supergrillmatic</w>": 4242,
      "supergrillator</w>": 4243,
      "supergrillizer</w>": 4244,
      "superbakematic</w>": 4245,
      "superbakeizer</w>": 4246,
      "superbakeator</w>": 4247,
      "supermixmatic</w>": 4248,
      "supermixator</w>": 4249,
      "supermixizer</w>": 4250,
      "ultramixmatic</w>": 4251,
      "ultramixator</w>": 4252,
      "ultramixizer</w>": 4253,
      "megagrillmatic</w>": 4254,
      "megagrillator</w>": 4255,
      "megagrillizer</w>": 4256,
      "megabakematic</w>": 4257,
      "megabakeizer</w>": 4258,
      "megabakeator</w>": 4259,
      "ultrabakematic</w>": 4260,
      "ultrabakeizer</w>": 4261,
      "ultrabakeator</w>": 4262,
      "ultragrillmatic</w>": 4263,
      "ultragrillator</w>": 4264,
      "ultragrillizer</w>": 4265,
      "tbsp</w>": 4266,
      "megasteammatic</w>": 4267,
      "megasteamator</w>": 4268,
      "megasteamizer</w>": 4269,
      "supersteammatic</w>": 4270,
      "supersteamator</w>": 4271,
      "supersteamizer</w>": 4272,
      "ultrasteammatic</w>": 4273,
      "ultrasteamator</w>": 4274,
      "ultrasteamizer</w>": 4275,
      "ultrafrymatic</w>": 4276,
      "ultrafryator</w>": 4277,
      "ultrafryizer</w>": 4278,
      "megafrymatic</w>": 4279,
      "megafryator</w>": 4280,
      "megafryizer</w>": 4281,
      "superfrymatic</w>": 4282,
      "superfryator</w>": 4283,
      "superfryizer</w>": 4284,
      "superboilmatic</w>": 4285,
      "superboilator</w>": 4286,
      "superboilizer</w>": 4287,
      "megaboilmatic</w>": 4288,
      "megaboilator</w>": 4289,
      "megaboilizer</w>": 4290,
      "ultraboilmatic</w>": 4291,
      "ultraboilator</w>": 4292,
      "ultraboilizer</w>": 4293,
      "superroastmatic</w>": 4294,
      "superroastator</w>": 4295,
      "supercookmatic</w>": 4296,
      "supercookator</w>": 4297,
      "supercookizer</w>": 4298,
      "ultraroastmatic</w>": 4299,
      "ultraroastator</w>": 4300,
      "ultracookmatic</w>": 4301,
      "ultracookator</w>": 4302,
      "ultracookizer</w>": 4303,
      "megaroastmatic</w>": 4304,
      "megaroastator</w>": 4305,
      "megacookmatic</w>": 4306,
      "megacookator</w>": 4307,
      "megacookizer</w>": 4308,
      "hypercooking</w>": 4309,
      "hypercooked</w>": 4310,
      "hypercookful</w>": 4311,
      "hypercooker</w>": 4312,
      "hypercookmatic</w>": 4313,
      "hypercookest</w>": 4314,
      "hypercookator</w>": 4315,
      "hypercookizer</w>": 4316,
      "impressive</w>": 4317,
      "bulk</w>": 4318,
      "side</w>": 4319,
      "##cktail</w>": 4320,
      "course</w>": 4321,
      "##ad": 4322,
      "##ff": 4323,
      "##til</w>": 4324,
      "foods</w>": 4325,
      "until</w>": 4326,
      "place</w>": 4327,
      "##medi": 4328,
      "all</w>": 4329,
      "building</w>": 4330,
      "cuc": 4331,
      "list</w>": 4332,
      "portions</w>": 4333,
      "soy</w>": 4334,
      "##umber</w>": 4335,
      "##ze</w>": 4336,
      "##ini</w>": 4337,
      "##iled</w>": 4338,
      "##ress": 4339,
      "avoc": 4340,
      "milk</w>": 4341,
      "basic</w>": 4342,
      "freeze</w>": 4343,
      "##ado</w>": 4344,
      "cucumber</w>": 4345,
      "avocado</w>": 4346,
      "clo": 4347,
      "en</w>": 4348,
      "mise</w>": 4349,
      "rise</w>": 4350,
      "vin": 4351,
      "wast": 4352,
      "wok</w>": 4353,
      "##of</w>": 4354,
      "##overs</w>": 4355,
      "##us</w>": 4356,
      "##af</w>": 4357,
      "##kage</w>": 4358,
      "##ect</w>": 4359,
      "hour</w>": 4360,
      "inter": 4361,
      "proroaster</w>": 4362,
      "prowhiping</w>": 4363,
      "prowhiply</w>": 4364,
      "prowhiped</w>": 4365,
      "prowhipable</w>": 4366,
      "prowhipful</w>": 4367,
      "prowhiper</w>": 4368,
      "prowhipless</w>": 4369,
      "prowhipest</w>": 4370,
      "prowhiption</w>": 4371,
      "prowhipness</w>": 4372,
      "prodicely</w>": 4373,
      "prodiceed</w>": 4374,
      "prodiceing</w>": 4375,
      "prodiceful</w>": 4376,
      "prodiceest</w>": 4377,
      "prodiceer</w>": 4378,
      "prodicetion</w>": 4379,
      "prodiceness</w>": 4380,
      "prodiceable</w>": 4381,
      "prodiceless</w>": 4382,
      "proroastly</w>": 4383,
      "proboiling</w>": 4384,
      "prozester</w>": 4385,
      "prozesting</w>": 4386,
      "prozested</w>": 4387,
      "prozestable</w>": 4388,
      "prozestful</w>": 4389,
      "prozestest</w>": 4390,
      "prozesttion</w>": 4391,
      "prozestness</w>": 4392,
      "prozestly</w>": 4393,
      "prozestless</w>": 4394,
      "probrowned</w>": 4395,
      "probeatly</w>": 4396,
      "probeater</w>": 4397,
      "probeatless</w>": 4398,
      "probeating</w>": 4399,
      "probeated</w>": 4400,
      "probrowning</w>": 4401,
      "probrownly</w>": 4402,
      "probrownable</w>": 4403,
      "probrownful</w>": 4404,
      "probrowner</w>": 4405,
      "probrownless</w>": 4406,
      "probrownest</w>": 4407,
      "probrowntion</w>": 4408,
      "probrownness</w>": 4409,
      "probeatable</w>": 4410,
      "probeatful</w>": 4411,
      "probeatest</w>": 4412,
      "probeattion</w>": 4413,
      "probeatness</w>": 4414,
      "proboilable</w>": 4415,
      "proboilless</w>": 4416,
      "proroasting</w>": 4417,
      "proroasted</w>": 4418,
      "proroastable</w>": 4419,
      "proroastful</w>": 4420,
      "proroastless</w>": 4421,
      "proroastest</w>": 4422,
      "proroasttion</w>": 4423,
      "proroastness</w>": 4424,
      "proboilly</w>": 4425,
      "proboiled</w>": 4426,
      "proboilful</w>": 4427,
      "proboiler</w>": 4428,
      "proboilest</w>": 4429,
      "proboiltion</w>": 4430,
      "proboilness</w>": 4431,
      "prosteamer</w>": 4432,
      "promeltly</w>": 4433,
      "promelter</w>": 4434,
      "promeltless</w>": 4435,
      "promelting</w>": 4436,
      "promelted</w>": 4437,
      "promeltable</w>": 4438,
      "promeltful</w>": 4439,
      "promeltest</w>": 4440,
      "promelttion</w>": 4441,
      "promeltness</w>": 4442,
      "prostired</w>": 4443,
      "proseared</w>": 4444,
      "prosearing</w>": 4445,
      "prosearer</w>": 4446,
      "prosearest</w>": 4447,
      "prostiring</w>": 4448,
      "prostirer</w>": 4449,
      "prostirest</w>": 4450,
      "proof</w>": 4451,
      "researed</w>": 4452,
      "researing</w>": 4453,
      "researer</w>": 4454,
      "researest</w>": 4455,
      "restiring</w>": 4456,
      "restirer</w>": 4457,
      "restirest</w>": 4458,
      "##tive</w>": 4459,
      "conta": 4460,
      "##egar</w>": 4461,
      "serving</w>": 4462,
      "frid": 4463,
      "prefrying</w>": 4464,
      "prewhiping</w>": 4465,
      "prewhiply</w>": 4466,
      "prewhiped</w>": 4467,
      "prewhipable</w>": 4468,
      "prewhipful</w>": 4469,
      "prewhiper</w>": 4470,
      "prewhipless</w>": 4471,
      "prewhipest</w>": 4472,
      "prewhiption</w>": 4473,
      "prewhipness</w>": 4474,
      "preboiling</w>": 4475,
      "prezester</w>": 4476,
      "prezesting</w>": 4477,
      "prezested</w>": 4478,
      "prezestable</w>": 4479,
      "prezestful</w>": 4480,
      "prezestest</w>": 4481,
      "prezesttion</w>": 4482,
      "prezestness</w>": 4483,
      "prezestly</w>": 4484,
      "prezestless</w>": 4485,
      "prebrowned</w>": 4486,
      "prebeatly</w>": 4487,
      "prebeater</w>": 4488,
      "prebeatless</w>": 4489,
      "prebeating</w>": 4490,
      "prebeated</w>": 4491,
      "prebrowning</w>": 4492,
      "prebrownly</w>": 4493,
      "prebrownable</w>": 4494,
      "prebrownful</w>": 4495,
      "prebrowner</w>": 4496,
      "prebrownless</w>": 4497,
      "prebrownest</w>": 4498,
      "prebrowntion</w>": 4499,
      "prebrownness</w>": 4500,
      "prefolded</w>": 4501,
      "prefoldable</w>": 4502,
      "prefoldful</w>": 4503,
      "prefoldless</w>": 4504,
      "prefoldest</w>": 4505,
      "prefoldtion</w>": 4506,
      "prefoldness</w>": 4507,
      "prebeatable</w>": 4508,
      "prebeatful</w>": 4509,
      "prebeatest</w>": 4510,
      "prebeattion</w>": 4511,
      "prebeatness</w>": 4512,
      "preboilable</w>": 4513,
      "preboilless</w>": 4514,
      "prefolding</w>": 4515,
      "prefoldly</w>": 4516,
      "prefolder</w>": 4517,
      "preboilly</w>": 4518,
      "preboiled</w>": 4519,
      "preboilful</w>": 4520,
      "preboiler</w>": 4521,
      "preboilest</w>": 4522,
      "preboiltion</w>": 4523,
      "preboilness</w>": 4524,
      "premeltly</w>": 4525,
      "premelter</w>": 4526,
      "premeltless</w>": 4527,
      "premelting</w>": 4528,
      "premelted</w>": 4529,
      "premeltable</w>": 4530,
      "premeltful</w>": 4531,
      "premeltest</w>": 4532,
      "premelttion</w>": 4533,
      "premeltness</w>": 4534,
      "rep": 4535,
      "refrying</w>": 4536,
      "rewhiping</w>": 4537,
      "rewhiply</w>": 4538,
      "rewhiped</w>": 4539,
      "rewhipable</w>": 4540,
      "rewhipful</w>": 4541,
      "rewhiper</w>": 4542,
      "rewhipless</w>": 4543,
      "rewhipest</w>": 4544,
      "rewhiption</w>": 4545,
      "rewhipness</w>": 4546,
      "redicely</w>": 4547,
      "rediceed</w>": 4548,
      "rediceing</w>": 4549,
      "rediceful</w>": 4550,
      "rediceest</w>": 4551,
      "rediceer</w>": 4552,
      "redicetion</w>": 4553,
      "rediceness</w>": 4554,
      "rediceable</w>": 4555,
      "rediceless</w>": 4556,
      "reboiling</w>": 4557,
      "rezester</w>": 4558,
      "rezesting</w>": 4559,
      "rezested</w>": 4560,
      "rezestable</w>": 4561,
      "rezestful</w>": 4562,
      "rezestest</w>": 4563,
      "rezesttion</w>": 4564,
      "rezestness</w>": 4565,
      "rezestly</w>": 4566,
      "rezestless</w>": 4567,
      "rebrowned</w>": 4568,
      "rebeatly</w>": 4569,
      "rebeater</w>": 4570,
      "rebeatless</w>": 4571,
      "rebeating</w>": 4572,
      "rebeated</w>": 4573,
      "rebrowning</w>": 4574,
      "rebrownly</w>": 4575,
      "rebrownable</w>": 4576,
      "rebrownful</w>": 4577,
      "rebrowner</w>": 4578,
      "rebrownless</w>": 4579,
      "rebrownest</w>": 4580,
      "rebrowntion</w>": 4581,
      "rebrownness</w>": 4582,
      "refolded</w>": 4583,
      "refoldable</w>": 4584,
      "refoldful</w>": 4585,
      "refoldless</w>": 4586,
      "refoldest</w>": 4587,
      "refoldtion</w>": 4588,
      "refoldness</w>": 4589,
      "rebeatable</w>": 4590,
      "rebeatful</w>": 4591,
      "rebeatest</w>": 4592,
      "rebeattion</w>": 4593,
      "rebeatness</w>": 4594,
      "reboilable</w>": 4595,
      "reboilless</w>": 4596,
      "refolding</w>": 4597,
      "refoldly</w>": 4598,
      "refolder</w>": 4599,
      "reboilly</w>": 4600,
      "reboiled</w>": 4601,
      "reboilful</w>": 4602,
      "reboiler</w>": 4603,
      "reboilest</w>": 4604,
      "reboiltion</w>": 4605,
      "reboilness</w>": 4606,
      "loaf</w>": 4607,
      "profrying</w>": 4608,
      "profolding</w>": 4609,
      "profoldly</w>": 4610,
      "profolder</w>": 4611,
      "##thing</w>": 4612,
      "minicooking</w>": 4613,
      "minicooked</w>": 4614,
      "ministired</w>": 4615,
      "ministeamer</w>": 4616,
      "ministiring</w>": 4617,
      "ministirer</w>": 4618,
      "ministirest</w>": 4619,
      "generic</w>": 4620,
      "everything</w>": 4621,
      "precooking</w>": 4622,
      "precooked</w>": 4623,
      "preseared</w>": 4624,
      "presearing</w>": 4625,
      "presearer</w>": 4626,
      "presearest</w>": 4627,
      "prestiring</w>": 4628,
      "prestirer</w>": 4629,
      "prestirest</w>": 4630,
      "overroaster</w>": 4631,
      "overwhiping</w>": 4632,
      "overwhiply</w>": 4633,
      "overwhiped</w>": 4634,
      "overwhipable</w>": 4635,
      "overwhipful</w>": 4636,
      "overwhiper</w>": 4637,
      "overwhipless</w>": 4638,
      "overwhipest</w>": 4639,
      "overwhiption</w>": 4640,
      "overwhipness</w>": 4641,
      "overdicely</w>": 4642,
      "overdiceed</w>": 4643,
      "overdiceing</w>": 4644,
      "overdiceful</w>": 4645,
      "overdiceest</w>": 4646,
      "overdiceer</w>": 4647,
      "overdicetion</w>": 4648,
      "overdiceness</w>": 4649,
      "overdiceable</w>": 4650,
      "overdiceless</w>": 4651,
      "overroastly</w>": 4652,
      "overboiling</w>": 4653,
      "overzester</w>": 4654,
      "overzesting</w>": 4655,
      "overzested</w>": 4656,
      "overzestable</w>": 4657,
      "overzestful</w>": 4658,
      "overzestest</w>": 4659,
      "overzesttion</w>": 4660,
      "overzestness</w>": 4661,
      "overzestly</w>": 4662,
      "overzestless</w>": 4663,
      "overbrowned</w>": 4664,
      "overbeatly</w>": 4665,
      "overbeater</w>": 4666,
      "overbeatless</w>": 4667,
      "overbeating</w>": 4668,
      "overbeated</w>": 4669,
      "overbrowning</w>": 4670,
      "overbrownly</w>": 4671,
      "overbrownable</w>": 4672,
      "overbrownful</w>": 4673,
      "overbrowner</w>": 4674,
      "overbrownless</w>": 4675,
      "overbrownest</w>": 4676,
      "overbrowntion</w>": 4677,
      "overbrownness</w>": 4678,
      "overbeatable</w>": 4679,
      "overbeatful</w>": 4680,
      "overbeatest</w>": 4681,
      "overbeattion</w>": 4682,
      "overbeatness</w>": 4683,
      "overcooking</w>": 4684,
      "overcooked</w>": 4685,
      "overboilable</w>": 4686,
      "overboilless</w>": 4687,
      "overroasting</w>": 4688,
      "overroasted</w>": 4689,
      "overroastable</w>": 4690,
      "overroastful</w>": 4691,
      "overroastless</w>": 4692,
      "overroastest</w>": 4693,
      "overroasttion</w>": 4694,
      "overroastness</w>": 4695,
      "overboilly</w>": 4696,
      "overboiled</w>": 4697,
      "overboilful</w>": 4698,
      "overboiler</w>": 4699,
      "overboilest</w>": 4700,
      "overboiltion</w>": 4701,
      "overboilness</w>": 4702,
      "oversteamer</w>": 4703,
      "overmeltly</w>": 4704,
      "overmelter</w>": 4705,
      "overmeltless</w>": 4706,
      "overmelting</w>": 4707,
      "overmelted</w>": 4708,
      "overmeltable</w>": 4709,
      "overmeltful</w>": 4710,
      "overmeltest</w>": 4711,
      "overmelttion</w>": 4712,
      "overmeltness</w>": 4713,
      "overstired</w>": 4714,
      "overseared</w>": 4715,
      "oversearing</w>": 4716,
      "oversearer</w>": 4717,
      "oversearest</w>": 4718,
      "overstiring</w>": 4719,
      "overstirer</w>": 4720,
      "overstirest</w>": 4721,
      "unroaster</w>": 4722,
      "unfrying</w>": 4723,
      "unwhiping</w>": 4724,
      "unwhiply</w>": 4725,
      "unwhiped</w>": 4726,
      "unwhipable</w>": 4727,
      "unwhipful</w>": 4728,
      "unwhiper</w>": 4729,
      "unwhipless</w>": 4730,
      "unwhipest</w>": 4731,
      "unwhiption</w>": 4732,
      "unwhipness</w>": 4733,
      "unroastly</w>": 4734,
      "unboiling</w>": 4735,
      "unzester</w>": 4736,
      "unzesting</w>": 4737,
      "unzested</w>": 4738,
      "unzestable</w>": 4739,
      "unzestful</w>": 4740,
      "unzestest</w>": 4741,
      "unzesttion</w>": 4742,
      "unzestness</w>": 4743,
      "unzestly</w>": 4744,
      "unzestless</w>": 4745,
      "unbrowned</w>": 4746,
      "unbeatly</w>": 4747,
      "unbeater</w>": 4748,
      "unbeatless</w>": 4749,
      "unbeating</w>": 4750,
      "unbeated</w>": 4751,
      "unbrowning</w>": 4752,
      "unbrownly</w>": 4753,
      "unbrownable</w>": 4754,
      "unbrownful</w>": 4755,
      "unbrowner</w>": 4756,
      "unbrownless</w>": 4757,
      "unbrownest</w>": 4758,
      "unbrowntion</w>": 4759,
      "unbrownness</w>": 4760,
      "unfolded</w>": 4761,
      "unfoldable</w>": 4762,
      "unfoldful</w>": 4763,
      "unfoldless</w>": 4764,
      "unfoldest</w>": 4765,
      "unfoldtion</w>": 4766,
      "unfoldness</w>": 4767,
      "unbeatable</w>": 4768,
      "unbeatful</w>": 4769,
      "unbeatest</w>": 4770,
      "unbeattion</w>": 4771,
      "unbeatness</w>": 4772,
      "uncooking</w>": 4773,
      "uncooked</w>": 4774,
      "unboilable</w>": 4775,
      "unboilless</w>": 4776,
      "unfolding</w>": 4777,
      "unfoldly</w>": 4778,
      "unfolder</w>": 4779,
      "unroasting</w>": 4780,
      "unroasted</w>": 4781,
      "unroastable</w>": 4782,
      "unroastful</w>": 4783,
      "unroastless</w>": 4784,
      "unroastest</w>": 4785,
      "unroasttion</w>": 4786,
      "unroastness</w>": 4787,
      "unboilly</w>": 4788,
      "unboiled</w>": 4789,
      "unboilful</w>": 4790,
      "unboiler</w>": 4791,
      "unboilest</w>": 4792,
      "unboiltion</w>": 4793,
      "unboilness</w>": 4794,
      "unsteamer</w>": 4795,
      "unmeltly</w>": 4796,
      "unmelter</w>": 4797,
      "unmeltless</w>": 4798,
      "unmelting</w>": 4799,
      "unmelted</w>": 4800,
      "unmeltable</w>": 4801,
      "unmeltful</w>": 4802,
      "unmeltest</w>": 4803,
      "unmelttion</w>": 4804,
      "unmeltness</w>": 4805,
      "unstired</w>": 4806,
      "unseared</w>": 4807,
      "unsearing</w>": 4808,
      "unsearer</w>": 4809,
      "unsearest</w>": 4810,
      "unstiring</w>": 4811,
      "unstirer</w>": 4812,
      "unstirest</w>": 4813,
      "megastired</w>": 4814,
      "superwhiping</w>": 4815,
      "superwhiply</w>": 4816,
      "superwhiped</w>": 4817,
      "superwhipable</w>": 4818,
      "superwhipful</w>": 4819,
      "superwhiper</w>": 4820,
      "superwhipless</w>": 4821,
      "superwhipest</w>": 4822,
      "superwhiption</w>": 4823,
      "superwhipness</w>": 4824,
      "superdicely</w>": 4825,
      "superdiceed</w>": 4826,
      "superdiceing</w>": 4827,
      "superdiceful</w>": 4828,
      "superdiceest</w>": 4829,
      "superdiceer</w>": 4830,
      "superdicetion</w>": 4831,
      "superdiceness</w>": 4832,
      "superdiceable</w>": 4833,
      "superdiceless</w>": 4834,
      "superroastly</w>": 4835,
      "superzester</w>": 4836,
      "superzesting</w>": 4837,
      "superzested</w>": 4838,
      "superzestable</w>": 4839,
      "superzestful</w>": 4840,
      "superzestest</w>": 4841,
      "superzesttion</w>": 4842,
      "superzestness</w>": 4843,
      "superzestly</w>": 4844,
      "superzestless</w>": 4845,
      "superbrowned</w>": 4846,
      "superbeatly</w>": 4847,
      "superbeater</w>": 4848,
      "superbeatless</w>": 4849,
      "superbeating</w>": 4850,
      "superbeated</w>": 4851,
      "superbrowning</w>": 4852,
      "superbrownly</w>": 4853,
      "superbrownable</w>": 4854,
      "superbrownful</w>": 4855,
      "superbrowner</w>": 4856,
      "superbrownless</w>": 4857,
      "superbrownest</w>": 4858,
      "superbrowntion</w>": 4859,
      "superbrownness</w>": 4860,
      "superbeatable</w>": 4861,
      "superbeatful</w>": 4862,
      "superbeatest</w>": 4863,
      "superbeattion</w>": 4864,
      "superbeatness</w>": 4865,
      "superboilable</w>": 4866,
      "superboilless</w>": 4867,
      "supermeltly</w>": 4868,
      "supermelter</w>": 4869,
      "supermeltless</w>": 4870,
      "supermelting</w>": 4871,
      "supermelted</w>": 4872,
      "supermeltable</w>": 4873,
      "supermeltful</w>": 4874,
      "supermeltest</w>": 4875,
      "supermelttion</w>": 4876,
      "supermeltness</w>": 4877,
      "superstired</w>": 4878,
      "superseared</w>": 4879,
      "supersearing</w>": 4880,
      "supersearer</w>": 4881,
      "supersearest</w>": 4882,
      "superstiring</w>": 4883,
      "superstirer</w>": 4884,
      "superstirest</w>": 4885,
      "nonroaster</w>": 4886,
      "nonfrying</w>": 4887,
      "nonwhiping</w>": 4888,
      "nonwhiply</w>": 4889,
      "nonwhiped</w>": 4890,
      "nonwhipable</w>": 4891,
      "nonwhipful</w>": 4892,
      "nonwhiper</w>": 4893,
      "nonwhipless</w>": 4894,
      "nonwhipest</w>": 4895,
      "nonwhiption</w>": 4896,
      "nonwhipness</w>": 4897,
      "nondicely</w>": 4898,
      "nondiceed</w>": 4899,
      "nondiceing</w>": 4900,
      "nondiceful</w>": 4901,
      "nondiceest</w>": 4902,
      "nondiceer</w>": 4903,
      "nondicetion</w>": 4904,
      "nondiceness</w>": 4905,
      "nondiceable</w>": 4906,
      "nondiceless</w>": 4907,
      "nonroastly</w>": 4908,
      "nonboiling</w>": 4909,
      "nonzester</w>": 4910,
      "nonzesting</w>": 4911,
      "nonzested</w>": 4912,
      "nonzestable</w>": 4913,
      "nonzestful</w>": 4914,
      "nonzestest</w>": 4915,
      "nonzesttion</w>": 4916,
      "nonzestness</w>": 4917,
      "nonzestly</w>": 4918,
      "nonzestless</w>": 4919,
      "nonbrowned</w>": 4920,
      "nonbeatly</w>": 4921,
      "nonbeater</w>": 4922,
      "nonbeatless</w>": 4923,
      "nonbeating</w>": 4924,
      "nonbeated</w>": 4925,
      "nonbrowning</w>": 4926,
      "nonbrownly</w>": 4927,
      "nonbrownable</w>": 4928,
      "nonbrownful</w>": 4929,
      "nonbrowner</w>": 4930,
      "nonbrownless</w>": 4931,
      "nonbrownest</w>": 4932,
      "nonbrowntion</w>": 4933,
      "nonbrownness</w>": 4934,
      "nonfolded</w>": 4935,
      "nonfoldable</w>": 4936,
      "nonfoldful</w>": 4937,
      "nonfoldless</w>": 4938,
      "nonfoldest</w>": 4939,
      "nonfoldtion</w>": 4940,
      "nonfoldness</w>": 4941,
      "nonbeatable</w>": 4942,
      "nonbeatful</w>": 4943,
      "nonbeatest</w>": 4944,
      "nonbeattion</w>": 4945,
      "nonbeatness</w>": 4946,
      "noncooking</w>": 4947,
      "noncooked</w>": 4948,
      "nonboilable</w>": 4949,
      "nonboilless</w>": 4950,
      "nonfolding</w>": 4951,
      "nonfoldly</w>": 4952,
      "nonfolder</w>": 4953,
      "nonroasting</w>": 4954,
      "nonroasted</w>": 4955,
      "nonroastable</w>": 4956,
      "nonroastful</w>": 4957,
      "nonroastless</w>": 4958,
      "nonroastest</w>": 4959,
      "nonroasttion</w>": 4960,
      "nonroastness</w>": 4961,
      "nonboilly</w>": 4962,
      "nonboiled</w>": 4963,
      "nonboilful</w>": 4964,
      "nonboiler</w>": 4965,
      "nonboilest</w>": 4966,
      "nonboiltion</w>": 4967,
      "nonboilness</w>": 4968,
      "nonsteamer</w>": 4969,
      "nonmeltly</w>": 4970,
      "nonmelter</w>": 4971,
      "nonmeltless</w>": 4972,
      "nonmelting</w>": 4973,
      "nonmelted</w>": 4974,
      "nonmeltable</w>": 4975,
      "nonmeltful</w>": 4976,
      "nonmeltest</w>": 4977,
      "nonmelttion</w>": 4978,
      "nonmeltness</w>": 4979,
      "nonstired</w>": 4980,
      "nonseared</w>": 4981,
      "nonsearing</w>": 4982,
      "nonsearer</w>": 4983,
      "nonsearest</w>": 4984,
      "nonstiring</w>": 4985,
      "nonstirer</w>": 4986,
      "nonstirest</w>": 4987,
      "semicooking</w>": 4988,
      "semicooked</w>": 4989,
      "semistired</w>": 4990,
      "semisteamer</w>": 4991,
      "semistiring</w>": 4992,
      "semistirer</w>": 4993,
      "semistirest</w>": 4994,
      "microroaster</w>": 4995,
      "microfrying</w>": 4996,
      "microdicely</w>": 4997,
      "microdiceed</w>": 4998,
      "microdiceing</w>": 4999,
      "microdiceful</w>": 5000,
      "microdiceest</w>": 5001,
      "microdiceer</w>": 5002,
      "microdicetion</w>": 5003,
      "microdiceness</w>": 5004,
      "microdiceable</w>": 5005,
      "microdiceless</w>": 5006,
      "microroastly</w>": 5007,
      "microboiling</w>": 5008,
      "microzester</w>": 5009,
      "microzesting</w>": 5010,
      "microzested</w>": 5011,
      "microzestable</w>": 5012,
      "microzestful</w>": 5013,
      "microzestest</w>": 5014,
      "microzesttion</w>": 5015,
      "microzestness</w>": 5016,
      "microzestly</w>": 5017,
      "microzestless</w>": 5018,
      "microbrowned</w>": 5019,
      "microbeatly</w>": 5020,
      "microbeater</w>": 5021,
      "microbeatless</w>": 5022,
      "microbeating</w>": 5023,
      "microbeated</w>": 5024,
      "microbrowning</w>": 5025,
      "microbrownly</w>": 5026,
      "microbrownable</w>": 5027,
      "microbrownful</w>": 5028,
      "microbrowner</w>": 5029,
      "microbrownless</w>": 5030,
      "microbrownest</w>": 5031,
      "microbrowntion</w>": 5032,
      "microbrownness</w>": 5033,
      "microfolded</w>": 5034,
      "microfoldable</w>": 5035,
      "microfoldful</w>": 5036,
      "microfoldless</w>": 5037,
      "microfoldest</w>": 5038,
      "microfoldtion</w>": 5039,
      "microfoldness</w>": 5040,
      "microbeatable</w>": 5041,
      "microbeatful</w>": 5042,
      "microbeatest</w>": 5043,
      "microbeattion</w>": 5044,
      "microbeatness</w>": 5045,
      "microboilable</w>": 5046,
      "microboilless</w>": 5047,
      "microfolding</w>": 5048,
      "microfoldly</w>": 5049,
      "microfolder</w>": 5050,
      "microroasting</w>": 5051,
      "microroasted</w>": 5052,
      "microroastable</w>": 5053,
      "microroastful</w>": 5054,
      "microroastless</w>": 5055,
      "microroastest</w>": 5056,
      "microroasttion</w>": 5057,
      "microroastness</w>": 5058,
      "microboilly</w>": 5059,
      "microboiled</w>": 5060,
      "microboilful</w>": 5061,
      "microboiler</w>": 5062,
      "microboilest</w>": 5063,
      "microboiltion</w>": 5064,
      "microboilness</w>": 5065,
      "microsteamer</w>": 5066,
      "micromeltly</w>": 5067,
      "micromelter</w>": 5068,
      "micromeltless</w>": 5069,
      "micromelting</w>": 5070,
      "micromelted</w>": 5071,
      "micromeltable</w>": 5072,
      "micromeltful</w>": 5073,
      "micromeltest</w>": 5074,
      "micromelttion</w>": 5075,
      "micromeltness</w>": 5076,
      "microstired</w>": 5077,
      "microseared</w>": 5078,
      "microsearing</w>": 5079,
      "microsearer</w>": 5080,
      "microsearest</w>": 5081,
      "microstiring</w>": 5082,
      "microstirer</w>": 5083,
      "microstirest</w>": 5084,
      "ultrastired</w>": 5085,
      "ultrawhiping</w>": 5086,
      "ultrawhiply</w>": 5087,
      "ultrawhiped</w>": 5088,
      "ultrawhipable</w>": 5089,
      "ultrawhipful</w>": 5090,
      "ultrawhiper</w>": 5091,
      "ultrawhipless</w>": 5092,
      "ultrawhipest</w>": 5093,
      "ultrawhiption</w>": 5094,
      "ultrawhipness</w>": 5095,
      "ultradicely</w>": 5096,
      "ultradiceed</w>": 5097,
      "ultradiceing</w>": 5098,
      "ultradiceful</w>": 5099,
      "ultradiceest</w>": 5100,
      "ultradiceer</w>": 5101,
      "ultradicetion</w>": 5102,
      "ultradiceness</w>": 5103,
      "ultradiceable</w>": 5104,
      "ultradiceless</w>": 5105,
      "ultraroastly</w>": 5106,
      "ultrazester</w>": 5107,
      "ultrazesting</w>": 5108,
      "ultrazested</w>": 5109,
      "ultrazestable</w>": 5110,
      "ultrazestful</w>": 5111,
      "ultrazestest</w>": 5112,
      "ultrazesttion</w>": 5113,
      "ultrazestness</w>": 5114,
      "ultrazestly</w>": 5115,
      "ultrazestless</w>": 5116,
      "ultrafolded</w>": 5117,
      "ultrafoldable</w>": 5118,
      "ultrafoldful</w>": 5119,
      "ultrafoldless</w>": 5120,
      "ultrafoldest</w>": 5121,
      "ultrafoldtion</w>": 5122,
      "ultrafoldness</w>": 5123,
      "ultrafolding</w>": 5124,
      "ultrafoldly</w>": 5125,
      "ultrafolder</w>": 5126,
      "antiroaster</w>": 5127,
      "antifrying</w>": 5128,
      "antiwhiping</w>": 5129,
      "antiwhiply</w>": 5130,
      "antiwhiped</w>": 5131,
      "antiwhipable</w>": 5132,
      "antiwhipful</w>": 5133,
      "antiwhiper</w>": 5134,
      "antiwhipless</w>": 5135,
      "antiwhipest</w>": 5136,
      "antiwhiption</w>": 5137,
      "antiwhipness</w>": 5138,
      "antidicely</w>": 5139,
      "antidiceed</w>": 5140,
      "antidiceing</w>": 5141,
      "antidiceful</w>": 5142,
      "antidiceest</w>": 5143,
      "antidiceer</w>": 5144,
      "antidicetion</w>": 5145,
      "antidiceness</w>": 5146,
      "antidiceable</w>": 5147,
      "antidiceless</w>": 5148,
      "antiroastly</w>": 5149,
      "antiboiling</w>": 5150,
      "antizester</w>": 5151,
      "antizesting</w>": 5152,
      "antizested</w>": 5153,
      "antizestable</w>": 5154,
      "antizestful</w>": 5155,
      "antizestest</w>": 5156,
      "antizesttion</w>": 5157,
      "antizestness</w>": 5158,
      "antizestly</w>": 5159,
      "antizestless</w>": 5160,
      "antibrowned</w>": 5161,
      "antibeatly</w>": 5162,
      "antibeater</w>": 5163,
      "antibeatless</w>": 5164,
      "antibeating</w>": 5165,
      "antibeated</w>": 5166,
      "antibrowning</w>": 5167,
      "antibrownly</w>": 5168,
      "antibrownable</w>": 5169,
      "antibrownful</w>": 5170,
      "antibrowner</w>": 5171,
      "antibrownless</w>": 5172,
      "antibrownest</w>": 5173,
      "antibrowntion</w>": 5174,
      "antibrownness</w>": 5175,
      "antifolded</w>": 5176,
      "antifoldable</w>": 5177,
      "antifoldful</w>": 5178,
      "antifoldless</w>": 5179,
      "antifoldest</w>": 5180,
      "antifoldtion</w>": 5181,
      "antifoldness</w>": 5182,
      "antibeatable</w>": 5183,
      "antibeatful</w>": 5184,
      "antibeatest</w>": 5185,
      "antibeattion</w>": 5186,
      "antibeatness</w>": 5187,
      "antiboilable</w>": 5188,
      "antiboilless</w>": 5189,
      "antifolding</w>": 5190,
      "antifoldly</w>": 5191,
      "antifolder</w>": 5192,
      "antiroasting</w>": 5193,
      "antiroasted</w>": 5194,
      "antiroastable</w>": 5195,
      "antiroastful</w>": 5196,
      "antiroastless</w>": 5197,
      "antiroastest</w>": 5198,
      "antiroasttion</w>": 5199,
      "antiroastness</w>": 5200,
      "antiboilly</w>": 5201,
      "antiboiled</w>": 5202,
      "antiboilful</w>": 5203,
      "antiboiler</w>": 5204,
      "antiboilest</w>": 5205,
      "antiboiltion</w>": 5206,
      "antiboilness</w>": 5207,
      "underroaster</w>": 5208,
      "underwhiping</w>": 5209,
      "underwhiply</w>": 5210,
      "underwhiped</w>": 5211,
      "underwhipable</w>": 5212,
      "underwhipful</w>": 5213,
      "underwhiper</w>": 5214,
      "underwhipless</w>": 5215,
      "underwhipest</w>": 5216,
      "underwhiption</w>": 5217,
      "underwhipness</w>": 5218,
      "underdicely</w>": 5219,
      "underdiceed</w>": 5220,
      "underdiceing</w>": 5221,
      "underdiceful</w>": 5222,
      "underdiceest</w>": 5223,
      "underdiceer</w>": 5224,
      "underdicetion</w>": 5225,
      "underdiceness</w>": 5226,
      "underdiceable</w>": 5227,
      "underdiceless</w>": 5228,
      "underroastly</w>": 5229,
      "underboiling</w>": 5230,
      "underzester</w>": 5231,
      "underzesting</w>": 5232,
      "underzested</w>": 5233,
      "underzestable</w>": 5234,
      "underzestful</w>": 5235,
      "underzestest</w>": 5236,
      "underzesttion</w>": 5237,
      "underzestness</w>": 5238,
      "underzestly</w>": 5239,
      "underzestless</w>": 5240,
      "underbrowned</w>": 5241,
      "underbeatly</w>": 5242,
      "underbeater</w>": 5243,
      "underbeatless</w>": 5244,
      "underbeating</w>": 5245,
      "underbeated</w>": 5246,
      "underbrowning</w>": 5247,
      "underbrownly</w>": 5248,
      "underbrownable</w>": 5249,
      "underbrownful</w>": 5250,
      "underbrowner</w>": 5251,
      "underbrownless</w>": 5252,
      "underbrownest</w>": 5253,
      "underbrowntion</w>": 5254,
      "underbrownness</w>": 5255,
      "underbeatable</w>": 5256,
      "underbeatful</w>": 5257,
      "underbeatest</w>": 5258,
      "underbeattion</w>": 5259,
      "underbeatness</w>": 5260,
      "undercooking</w>": 5261,
      "undercooked</w>": 5262,
      "underboilable</w>": 5263,
      "underboilless</w>": 5264,
      "underroasting</w>": 5265,
      "underroasted</w>": 5266,
      "underroastable</w>": 5267,
      "underroastful</w>": 5268,
      "underroastless</w>": 5269,
      "underroastest</w>": 5270,
      "underroasttion</w>": 5271,
      "underroastness</w>": 5272,
      "underboilly</w>": 5273,
      "underboiled</w>": 5274,
      "underboilful</w>": 5275,
      "underboiler</w>": 5276,
      "underboilest</w>": 5277,
      "underboiltion</w>": 5278,
      "underboilness</w>": 5279,
      "underseared</w>": 5280,
      "undersearing</w>": 5281,
      "undersearer</w>": 5282,
      "undersearest</w>": 5283,
      "understiring</w>": 5284,
      "understirer</w>": 5285,
      "understirest</w>": 5286,
      "multiroaster</w>": 5287,
      "multifrying</w>": 5288,
      "multiwhiping</w>": 5289,
      "multiwhiply</w>": 5290,
      "multiwhiped</w>": 5291,
      "multiwhipable</w>": 5292,
      "multiwhipful</w>": 5293,
      "multiwhiper</w>": 5294,
      "multiwhipless</w>": 5295,
      "multiwhipest</w>": 5296,
      "multiwhiption</w>": 5297,
      "multiwhipness</w>": 5298,
      "multidicely</w>": 5299,
      "multidiceed</w>": 5300,
      "multidiceing</w>": 5301,
      "multidiceful</w>": 5302,
      "multidiceest</w>": 5303,
      "multidiceer</w>": 5304,
      "multidicetion</w>": 5305,
      "multidiceness</w>": 5306,
      "multidiceable</w>": 5307,
      "multidiceless</w>": 5308,
      "multiroastly</w>": 5309,
      "multiboiling</w>": 5310,
      "multizester</w>": 5311,
      "multizesting</w>": 5312,
      "multizested</w>": 5313,
      "multizestable</w>": 5314,
      "multizestful</w>": 5315,
      "multizestest</w>": 5316,
      "multizesttion</w>": 5317,
      "multizestness</w>": 5318,
      "multizestly</w>": 5319,
      "multizestless</w>": 5320,
      "multibrowned</w>": 5321,
      "multibeatly</w>": 5322,
      "multibeater</w>": 5323,
      "multibeatless</w>": 5324,
      "multibeating</w>": 5325,
      "multibeated</w>": 5326,
      "multibrowning</w>": 5327,
      "multibrownly</w>": 5328,
      "multibrownable</w>": 5329,
      "multibrownful</w>": 5330,
      "multibrowner</w>": 5331,
      "multibrownless</w>": 5332,
      "multibrownest</w>": 5333,
      "multibrowntion</w>": 5334,
      "multibrownness</w>": 5335,
      "multifolded</w>": 5336,
      "multifoldable</w>": 5337,
      "multifoldful</w>": 5338,
      "multifoldless</w>": 5339,
      "multifoldest</w>": 5340,
      "multifoldtion</w>": 5341,
      "multifoldness</w>": 5342,
      "multibeatable</w>": 5343,
      "multibeatful</w>": 5344,
      "multibeatest</w>": 5345,
      "multibeattion</w>": 5346,
      "multibeatness</w>": 5347,
      "multiboilable</w>": 5348,
      "multiboilless</w>": 5349,
      "multifolding</w>": 5350,
      "multifoldly</w>": 5351,
      "multifolder</w>": 5352,
      "multiroasting</w>": 5353,
      "multiroasted</w>": 5354,
      "multiroastable</w>": 5355,
      "multiroastful</w>": 5356,
      "multiroastless</w>": 5357,
      "multiroastest</w>": 5358,
      "multiroasttion</w>": 5359,
      "multiroastness</w>": 5360,
      "multiboilly</w>": 5361,
      "multiboiled</w>": 5362,
      "multiboilful</w>": 5363,
      "multiboiler</w>": 5364,
      "multiboilest</w>": 5365,
      "multiboiltion</w>": 5366,
      "multiboilness</w>": 5367,
      "anticooking</w>": 5368,
      "anticooked</w>": 5369,
      "antistired</w>": 5370,
      "antisteamer</w>": 5371,
      "antistiring</w>": 5372,
      "antistirer</w>": 5373,
      "antistirest</w>": 5374,
      "megawhiping</w>": 5375,
      "megawhiply</w>": 5376,
      "megawhiped</w>": 5377,
      "megawhipable</w>": 5378,
      "megawhipful</w>": 5379,
      "megawhiper</w>": 5380,
      "megawhipless</w>": 5381,
      "megawhipest</w>": 5382,
      "megawhiption</w>": 5383,
      "megawhipness</w>": 5384,
      "megadicely</w>": 5385,
      "megadiceed</w>": 5386,
      "megadiceing</w>": 5387,
      "megadiceful</w>": 5388,
      "megadiceest</w>": 5389,
      "megadiceer</w>": 5390,
      "megadicetion</w>": 5391,
      "megadiceness</w>": 5392,
      "megadiceable</w>": 5393,
      "megadiceless</w>": 5394,
      "megaroastly</w>": 5395,
      "megafolded</w>": 5396,
      "megafoldable</w>": 5397,
      "megafoldful</w>": 5398,
      "megafoldless</w>": 5399,
      "megafoldest</w>": 5400,
      "megafoldtion</w>": 5401,
      "megafoldness</w>": 5402,
      "megafolding</w>": 5403,
      "megafoldly</w>": 5404,
      "megafolder</w>": 5405,
      "multicooking</w>": 5406,
      "multicooked</w>": 5407,
      "multistired</w>": 5408,
      "multisteamer</w>": 5409,
      "multistiring</w>": 5410,
      "multistirer</w>": 5411,
      "multistirest</w>": 5412,
      "leftovers</w>": 5413,
      "megabrowned</w>": 5414,
      "megaboilable</w>": 5415,
      "megaboilless</w>": 5416,
      "ultrabrowned</w>": 5417,
      "ultraboilable</w>": 5418,
      "ultraboilless</w>": 5419,
      "restired</w>": 5420,
      "resteamer</w>": 5421,
      "procooking</w>": 5422,
      "procooked</w>": 5423,
      "miniroaster</w>": 5424,
      "minifrying</w>": 5425,
      "miniwhiping</w>": 5426,
      "miniwhiply</w>": 5427,
      "miniwhiped</w>": 5428,
      "miniwhipable</w>": 5429,
      "miniwhipful</w>": 5430,
      "miniwhiper</w>": 5431,
      "miniwhipless</w>": 5432,
      "miniwhipest</w>": 5433,
      "miniwhiption</w>": 5434,
      "miniwhipness</w>": 5435,
      "minidicely</w>": 5436,
      "minidiceed</w>": 5437,
      "minidiceing</w>": 5438,
      "minidiceful</w>": 5439,
      "minidiceest</w>": 5440,
      "minidiceer</w>": 5441,
      "minidicetion</w>": 5442,
      "minidiceness</w>": 5443,
      "minidiceable</w>": 5444,
      "minidiceless</w>": 5445,
      "miniroastly</w>": 5446,
      "minifolded</w>": 5447,
      "minifoldable</w>": 5448,
      "minifoldful</w>": 5449,
      "minifoldless</w>": 5450,
      "minifoldest</w>": 5451,
      "minifoldtion</w>": 5452,
      "minifoldness</w>": 5453,
      "minifolding</w>": 5454,
      "minifoldly</w>": 5455,
      "minifolder</w>": 5456,
      "miniroasting</w>": 5457,
      "miniroasted</w>": 5458,
      "miniroastable</w>": 5459,
      "miniroastful</w>": 5460,
      "miniroastless</w>": 5461,
      "miniroastest</w>": 5462,
      "miniroasttion</w>": 5463,
      "miniroastness</w>": 5464,
      "semiroaster</w>": 5465,
      "semifrying</w>": 5466,
      "semiwhiping</w>": 5467,
      "semiwhiply</w>": 5468,
      "semiwhiped</w>": 5469,
      "semiwhipable</w>": 5470,
      "semiwhipful</w>": 5471,
      "semiwhiper</w>": 5472,
      "semiwhipless</w>": 5473,
      "semiwhipest</w>": 5474,
      "semiwhiption</w>": 5475,
      "semiwhipness</w>": 5476,
      "semidicely</w>": 5477,
      "semidiceed</w>": 5478,
      "semidiceing</w>": 5479,
      "semidiceful</w>": 5480,
      "semidiceest</w>": 5481,
      "semidiceer</w>": 5482,
      "semidicetion</w>": 5483,
      "semidiceness</w>": 5484,
      "semidiceable</w>": 5485,
      "semidiceless</w>": 5486,
      "semiroastly</w>": 5487,
      "semifolded</w>": 5488,
      "semifoldable</w>": 5489,
      "semifoldful</w>": 5490,
      "semifoldless</w>": 5491,
      "semifoldest</w>": 5492,
      "semifoldtion</w>": 5493,
      "semifoldness</w>": 5494,
      "semifolding</w>": 5495,
      "semifoldly</w>": 5496,
      "semifolder</w>": 5497,
      "semiroasting</w>": 5498,
      "semiroasted</w>": 5499,
      "semiroastable</w>": 5500,
      "semiroastful</w>": 5501,
      "semiroastless</w>": 5502,
      "semiroastest</w>": 5503,
      "semiroasttion</w>": 5504,
      "semiroastness</w>": 5505,
      "minibrowned</w>": 5506,
      "miniboiling</w>": 5507,
      "miniboilable</w>": 5508,
      "miniboilless</w>": 5509,
      "semibrowned</w>": 5510,
      "semiboiling</w>": 5511,
      "semiboilable</w>": 5512,
      "semiboilless</w>": 5513,
      "superfolding</w>": 5514,
      "superfoldly</w>": 5515,
      "superfolder</w>": 5516,
      "megaseared</w>": 5517,
      "megasearing</w>": 5518,
      "megasearer</w>": 5519,
      "megasearest</w>": 5520,
      "megastiring</w>": 5521,
      "megastirer</w>": 5522,
      "megastirest</w>": 5523,
      "ultraseared</w>": 5524,
      "ultrasearing</w>": 5525,
      "ultrasearer</w>": 5526,
      "ultrasearest</w>": 5527,
      "ultrastiring</w>": 5528,
      "ultrastirer</w>": 5529,
      "ultrastirest</w>": 5530,
      "megamixly</w>": 5531,
      "megamixable</w>": 5532,
      "megamixless</w>": 5533,
      "megamixtion</w>": 5534,
      "megamixness</w>": 5535,
      "supergrillly</w>": 5536,
      "supergrillable</w>": 5537,
      "supergrillless</w>": 5538,
      "supergrilltion</w>": 5539,
      "supergrillness</w>": 5540,
      "superbakely</w>": 5541,
      "superbaketion</w>": 5542,
      "superbakeness</w>": 5543,
      "superbakeable</w>": 5544,
      "superbakeless</w>": 5545,
      "supermixly</w>": 5546,
      "supermixable</w>": 5547,
      "supermixless</w>": 5548,
      "supermixtion</w>": 5549,
      "supermixness</w>": 5550,
      "ultramixly</w>": 5551,
      "ultramixable</w>": 5552,
      "ultramixless</w>": 5553,
      "ultramixtion</w>": 5554,
      "ultramixness</w>": 5555,
      "megagrillly</w>": 5556,
      "megagrillable</w>": 5557,
      "megagrillless</w>": 5558,
      "megagrilltion</w>": 5559,
      "megagrillness</w>": 5560,
      "megabakely</w>": 5561,
      "megabaketion</w>": 5562,
      "megabakeness</w>": 5563,
      "megabakeable</w>": 5564,
      "megabakeless</w>": 5565,
      "ultrabakely</w>": 5566,
      "ultrabaketion</w>": 5567,
      "ultrabakeness</w>": 5568,
      "ultrabakeable</w>": 5569,
      "ultrabakeless</w>": 5570,
      "ultragrillly</w>": 5571,
      "ultragrillable</w>": 5572,
      "ultragrillless</w>": 5573,
      "ultragrilltion</w>": 5574,
      "ultragrillness</w>": 5575,
      "understired</w>": 5576,
      "understeamer</w>": 5577,
      "megasteamly</w>": 5578,
      "megasteamable</w>": 5579,
      "megasteamless</w>": 5580,
      "megasteamtion</w>": 5581,
      "megasteamness</w>": 5582,
      "supersteamly</w>": 5583,
      "supersteamable</w>": 5584,
      "supersteamless</w>": 5585,
      "supersteamtion</w>": 5586,
      "supersteamness</w>": 5587,
      "ultrasteamly</w>": 5588,
      "ultrasteamable</w>": 5589,
      "ultrasteamless</w>": 5590,
      "ultrasteamtion</w>": 5591,
      "ultrasteamness</w>": 5592,
      "ultrafryly</w>": 5593,
      "ultrafryable</w>": 5594,
      "ultrafryless</w>": 5595,
      "ultrafrytion</w>": 5596,
      "ultrafryness</w>": 5597,
      "megafryly</w>": 5598,
      "megafryable</w>": 5599,
      "megafryless</w>": 5600,
      "megafrytion</w>": 5601,
      "megafryness</w>": 5602,
      "superfryly</w>": 5603,
      "superfryable</w>": 5604,
      "superfryless</w>": 5605,
      "superfrytion</w>": 5606,
      "superfryness</w>": 5607,
      "recooking</w>": 5608,
      "recooked</w>": 5609,
      "underfrying</w>": 5610,
      "underfolding</w>": 5611,
      "underfoldly</w>": 5612,
      "underfolder</w>": 5613,
      "microcooking</w>": 5614,
      "microcooked</w>": 5615,
      "overfrying</w>": 5616,
      "overfolding</w>": 5617,
      "overfoldly</w>": 5618,
      "overfolder</w>": 5619,
      "superboilly</w>": 5620,
      "superboiltion</w>": 5621,
      "superboilness</w>": 5622,
      "megaboilly</w>": 5623,
      "megaboiltion</w>": 5624,
      "megaboilness</w>": 5625,
      "ultraboilly</w>": 5626,
      "ultraboiltion</w>": 5627,
      "ultraboilness</w>": 5628,
      "superroastable</w>": 5629,
      "superroastless</w>": 5630,
      "superroasttion</w>": 5631,
      "superroastness</w>": 5632,
      "supercookly</w>": 5633,
      "supercookable</w>": 5634,
      "supercookless</w>": 5635,
      "supercooktion</w>": 5636,
      "supercookness</w>": 5637,
      "ultraroastable</w>": 5638,
      "ultraroastless</w>": 5639,
      "ultraroasttion</w>": 5640,
      "ultraroastness</w>": 5641,
      "ultracookly</w>": 5642,
      "ultracookable</w>": 5643,
      "ultracookless</w>": 5644,
      "ultracooktion</w>": 5645,
      "ultracookness</w>": 5646,
      "megaroastable</w>": 5647,
      "megaroastless</w>": 5648,
      "megaroasttion</w>": 5649,
      "megaroastness</w>": 5650,
      "megacookly</w>": 5651,
      "megacookable</w>": 5652,
      "megacookless</w>": 5653,
      "megacooktion</w>": 5654,
      "megacookness</w>": 5655,
      "prestired</w>": 5656,
      "presteamer</w>": 5657,
      "progrilling</w>": 5658,
      "progrillly</w>": 5659,
      "progrilled</w>": 5660,
      "progrillable</w>": 5661,
      "progrillful</w>": 5662,
      "progriller</w>": 5663,
      "progrillless</w>": 5664,
      "progrillest</w>": 5665,
      "progrilltion</w>": 5666,
      "progrillness</w>": 5667,
      "probakely</w>": 5668,
      "probakeed</w>": 5669,
      "probakeing</w>": 5670,
      "probakeful</w>": 5671,
      "probakeest</w>": 5672,
      "probakeer</w>": 5673,
      "probaketion</w>": 5674,
      "probakeness</w>": 5675,
      "probakeable</w>": 5676,
      "probakeless</w>": 5677,
      "promixing</w>": 5678,
      "promixly</w>": 5679,
      "promixed</w>": 5680,
      "promixable</w>": 5681,
      "promixful</w>": 5682,
      "promixer</w>": 5683,
      "promixless</w>": 5684,
      "promixest</w>": 5685,
      "promixtion</w>": 5686,
      "promixness</w>": 5687,
      "prochoping</w>": 5688,
      "prochoply</w>": 5689,
      "prochoped</w>": 5690,
      "prochopable</w>": 5691,
      "prochopful</w>": 5692,
      "prochoper</w>": 5693,
      "prochopless</w>": 5694,
      "prochopest</w>": 5695,
      "prochoption</w>": 5696,
      "prochopness</w>": 5697,
      "promincely</w>": 5698,
      "prominceed</w>": 5699,
      "prominceing</w>": 5700,
      "prominceful</w>": 5701,
      "prominceest</w>": 5702,
      "prominceer</w>": 5703,
      "promincetion</w>": 5704,
      "prominceness</w>": 5705,
      "prominceable</w>": 5706,
      "prominceless</w>": 5707,
      "proslicely</w>": 5708,
      "prosliceed</w>": 5709,
      "prosliceing</w>": 5710,
      "prosliceful</w>": 5711,
      "prosliceest</w>": 5712,
      "prosliceer</w>": 5713,
      "proslicetion</w>": 5714,
      "prosliceness</w>": 5715,
      "prosliceable</w>": 5716,
      "prosliceless</w>": 5717,
      "reslicely</w>": 5718,
      "resliceed</w>": 5719,
      "resliceing</w>": 5720,
      "resliceful</w>": 5721,
      "resliceest</w>": 5722,
      "resliceer</w>": 5723,
      "reslicetion</w>": 5724,
      "resliceness</w>": 5725,
      "resliceable</w>": 5726,
      "resliceless</w>": 5727,
      "pregrilling</w>": 5728,
      "pregrillly</w>": 5729,
      "pregrilled</w>": 5730,
      "pregrillable</w>": 5731,
      "pregrillful</w>": 5732,
      "pregriller</w>": 5733,
      "pregrillless</w>": 5734,
      "pregrillest</w>": 5735,
      "pregrilltion</w>": 5736,
      "pregrillness</w>": 5737,
      "prebakely</w>": 5738,
      "prebakeed</w>": 5739,
      "prebakeing</w>": 5740,
      "prebakeful</w>": 5741,
      "prebakeest</w>": 5742,
      "prebakeer</w>": 5743,
      "prebaketion</w>": 5744,
      "prebakeness</w>": 5745,
      "prebakeable</w>": 5746,
      "prebakeless</w>": 5747,
      "premixing</w>": 5748,
      "premixly</w>": 5749,
      "premixed</w>": 5750,
      "premixable</w>": 5751,
      "premixful</w>": 5752,
      "premixer</w>": 5753,
      "premixless</w>": 5754,
      "premixest</w>": 5755,
      "premixtion</w>": 5756,
      "premixness</w>": 5757,
      "premincely</w>": 5758,
      "preminceed</w>": 5759,
      "preminceing</w>": 5760,
      "preminceful</w>": 5761,
      "preminceest</w>": 5762,
      "preminceer</w>": 5763,
      "premincetion</w>": 5764,
      "preminceness</w>": 5765,
      "preminceable</w>": 5766,
      "preminceless</w>": 5767,
      "rebakely</w>": 5768,
      "rebakeed</w>": 5769,
      "rebakeing</w>": 5770,
      "rebakeful</w>": 5771,
      "rebakeest</w>": 5772,
      "rebakeer</w>": 5773,
      "rebaketion</w>": 5774,
      "rebakeness</w>": 5775,
      "rebakeable</w>": 5776,
      "rebakeless</w>": 5777,
      "minichoping</w>": 5778,
      "minichoply</w>": 5779,
      "minichoped</w>": 5780,
      "minichopable</w>": 5781,
      "minichopful</w>": 5782,
      "minichoper</w>": 5783,
      "minichopless</w>": 5784,
      "minichopest</w>": 5785,
      "minichoption</w>": 5786,
      "minichopness</w>": 5787,
      "minislicely</w>": 5788,
      "minisliceed</w>": 5789,
      "minisliceing</w>": 5790,
      "minisliceful</w>": 5791,
      "minisliceest</w>": 5792,
      "minisliceer</w>": 5793,
      "minislicetion</w>": 5794,
      "minisliceness</w>": 5795,
      "minisliceable</w>": 5796,
      "minisliceless</w>": 5797,
      "minimixing</w>": 5798,
      "minimixly</w>": 5799,
      "minimixed</w>": 5800,
      "minimixable</w>": 5801,
      "minimixful</w>": 5802,
      "minimixer</w>": 5803,
      "minimixless</w>": 5804,
      "minimixest</w>": 5805,
      "minimixtion</w>": 5806,
      "minimixness</w>": 5807,
      "minimincely</w>": 5808,
      "miniminceed</w>": 5809,
      "miniminceing</w>": 5810,
      "miniminceful</w>": 5811,
      "miniminceest</w>": 5812,
      "miniminceer</w>": 5813,
      "minimincetion</w>": 5814,
      "miniminceness</w>": 5815,
      "miniminceable</w>": 5816,
      "miniminceless</w>": 5817,
      "minigrilling</w>": 5818,
      "minigrillly</w>": 5819,
      "minigrilled</w>": 5820,
      "minigrillable</w>": 5821,
      "minigrillful</w>": 5822,
      "minigriller</w>": 5823,
      "minigrillless</w>": 5824,
      "minigrillest</w>": 5825,
      "minigrilltion</w>": 5826,
      "minigrillness</w>": 5827,
      "prechoping</w>": 5828,
      "prechoply</w>": 5829,
      "prechoped</w>": 5830,
      "prechopable</w>": 5831,
      "prechopful</w>": 5832,
      "prechoper</w>": 5833,
      "prechopless</w>": 5834,
      "prechopest</w>": 5835,
      "prechoption</w>": 5836,
      "prechopness</w>": 5837,
      "preslicely</w>": 5838,
      "presliceed</w>": 5839,
      "presliceing</w>": 5840,
      "presliceful</w>": 5841,
      "presliceest</w>": 5842,
      "presliceer</w>": 5843,
      "preslicetion</w>": 5844,
      "presliceness</w>": 5845,
      "presliceable</w>": 5846,
      "presliceless</w>": 5847,
      "overgrilling</w>": 5848,
      "overgrillly</w>": 5849,
      "overgrilled</w>": 5850,
      "overgrillable</w>": 5851,
      "overgrillful</w>": 5852,
      "overgriller</w>": 5853,
      "overgrillless</w>": 5854,
      "overgrillest</w>": 5855,
      "overgrilltion</w>": 5856,
      "overgrillness</w>": 5857,
      "overbakely</w>": 5858,
      "overbakeed</w>": 5859,
      "overbakeing</w>": 5860,
      "overbakeful</w>": 5861,
      "overbakeest</w>": 5862,
      "overbakeer</w>": 5863,
      "overbaketion</w>": 5864,
      "overbakeness</w>": 5865,
      "overbakeable</w>": 5866,
      "overbakeless</w>": 5867,
      "overmixing</w>": 5868,
      "overmixly</w>": 5869,
      "overmixed</w>": 5870,
      "overmixable</w>": 5871,
      "overmixful</w>": 5872,
      "overmixer</w>": 5873,
      "overmixless</w>": 5874,
      "overmixest</w>": 5875,
      "overmixtion</w>": 5876,
      "overmixness</w>": 5877,
      "overchoping</w>": 5878,
      "overchoply</w>": 5879,
      "overchoped</w>": 5880,
      "overchopable</w>": 5881,
      "overchopful</w>": 5882,
      "overchoper</w>": 5883,
      "overchopless</w>": 5884,
      "overchopest</w>": 5885,
      "overchoption</w>": 5886,
      "overchopness</w>": 5887,
      "overmincely</w>": 5888,
      "overminceed</w>": 5889,
      "overminceing</w>": 5890,
      "overminceful</w>": 5891,
      "overminceest</w>": 5892,
      "overminceer</w>": 5893,
      "overmincetion</w>": 5894,
      "overminceness</w>": 5895,
      "overminceable</w>": 5896,
      "overminceless</w>": 5897,
      "overslicely</w>": 5898,
      "oversliceed</w>": 5899,
      "oversliceing</w>": 5900,
      "oversliceful</w>": 5901,
      "oversliceest</w>": 5902,
      "oversliceer</w>": 5903,
      "overslicetion</w>": 5904,
      "oversliceness</w>": 5905,
      "oversliceable</w>": 5906,
      "oversliceless</w>": 5907,
      "ungrilling</w>": 5908,
      "ungrillly</w>": 5909,
      "ungrilled</w>": 5910,
      "ungrillable</w>": 5911,
      "ungrillful</w>": 5912,
      "ungriller</w>": 5913,
      "ungrillless</w>": 5914,
      "ungrillest</w>": 5915,
      "ungrilltion</w>": 5916,
      "ungrillness</w>": 5917,
      "unbakely</w>": 5918,
      "unbakeed</w>": 5919,
      "unbakeing</w>": 5920,
      "unbakeful</w>": 5921,
      "unbakeest</w>": 5922,
      "unbakeer</w>": 5923,
      "unbaketion</w>": 5924,
      "unbakeness</w>": 5925,
      "unbakeable</w>": 5926,
      "unbakeless</w>": 5927,
      "unmixing</w>": 5928,
      "unmixly</w>": 5929,
      "unmixed</w>": 5930,
      "unmixable</w>": 5931,
      "unmixful</w>": 5932,
      "unmixer</w>": 5933,
      "unmixless</w>": 5934,
      "unmixest</w>": 5935,
      "unmixtion</w>": 5936,
      "unmixness</w>": 5937,
      "unchoping</w>": 5938,
      "unchoply</w>": 5939,
      "unchoped</w>": 5940,
      "unchopable</w>": 5941,
      "unchopful</w>": 5942,
      "unchoper</w>": 5943,
      "unchopless</w>": 5944,
      "unchopest</w>": 5945,
      "unchoption</w>": 5946,
      "unchopness</w>": 5947,
      "unmincely</w>": 5948,
      "unminceed</w>": 5949,
      "unminceing</w>": 5950,
      "unminceful</w>": 5951,
      "unminceest</w>": 5952,
      "unminceer</w>": 5953,
      "unmincetion</w>": 5954,
      "unminceness</w>": 5955,
      "unminceable</w>": 5956,
      "unminceless</w>": 5957,
      "unslicely</w>": 5958,
      "unsliceed</w>": 5959,
      "unsliceing</w>": 5960,
      "unsliceful</w>": 5961,
      "unsliceest</w>": 5962,
      "unsliceer</w>": 5963,
      "unslicetion</w>": 5964,
      "unsliceness</w>": 5965,
      "unsliceable</w>": 5966,
      "unsliceless</w>": 5967,
      "megazester</w>": 5968,
      "megazesting</w>": 5969,
      "megazestly</w>": 5970,
      "megazestless</w>": 5971,
      "megameltly</w>": 5972,
      "megamelter</w>": 5973,
      "megameltless</w>": 5974,
      "megamelting</w>": 5975,
      "megamelted</w>": 5976,
      "megamincely</w>": 5977,
      "megaminceed</w>": 5978,
      "megaminceing</w>": 5979,
      "megaminceful</w>": 5980,
      "megaminceest</w>": 5981,
      "megaminceer</w>": 5982,
      "megamincetion</w>": 5983,
      "megaminceness</w>": 5984,
      "megaminceable</w>": 5985,
      "megaminceless</w>": 5986,
      "superchoping</w>": 5987,
      "superchoply</w>": 5988,
      "superchoped</w>": 5989,
      "superchopable</w>": 5990,
      "superchopful</w>": 5991,
      "superchoper</w>": 5992,
      "superchopless</w>": 5993,
      "superchopest</w>": 5994,
      "superchoption</w>": 5995,
      "superchopness</w>": 5996,
      "supermincely</w>": 5997,
      "superminceed</w>": 5998,
      "superminceing</w>": 5999,
      "superminceful</w>": 6000,
      "superminceest</w>": 6001,
      "superminceer</w>": 6002,
      "supermincetion</w>": 6003,
      "superminceness</w>": 6004,
      "superminceable</w>": 6005,
      "superminceless</w>": 6006,
      "superslicely</w>": 6007,
      "supersliceed</w>": 6008,
      "supersliceing</w>": 6009,
      "supersliceful</w>": 6010,
      "supersliceest</w>": 6011,
      "supersliceer</w>": 6012,
      "superslicetion</w>": 6013,
      "supersliceness</w>": 6014,
      "supersliceable</w>": 6015,
      "supersliceless</w>": 6016,
      "undicely</w>": 6017,
      "undiceed</w>": 6018,
      "undiceing</w>": 6019,
      "undiceful</w>": 6020,
      "undiceest</w>": 6021,
      "undiceer</w>": 6022,
      "undicetion</w>": 6023,
      "undiceness</w>": 6024,
      "undiceable</w>": 6025,
      "undiceless</w>": 6026,
      "nongrilling</w>": 6027,
      "nongrillly</w>": 6028,
      "nongrilled</w>": 6029,
      "nongrillable</w>": 6030,
      "nongrillful</w>": 6031,
      "nongriller</w>": 6032,
      "nongrillless</w>": 6033,
      "nongrillest</w>": 6034,
      "nongrilltion</w>": 6035,
      "nongrillness</w>": 6036,
      "nonbakely</w>": 6037,
      "nonbakeed</w>": 6038,
      "nonbakeing</w>": 6039,
      "nonbakeful</w>": 6040,
      "nonbakeest</w>": 6041,
      "nonbakeer</w>": 6042,
      "nonbaketion</w>": 6043,
      "nonbakeness</w>": 6044,
      "nonbakeable</w>": 6045,
      "nonbakeless</w>": 6046,
      "nonmixing</w>": 6047,
      "nonmixly</w>": 6048,
      "nonmixed</w>": 6049,
      "nonmixable</w>": 6050,
      "nonmixful</w>": 6051,
      "nonmixer</w>": 6052,
      "nonmixless</w>": 6053,
      "nonmixest</w>": 6054,
      "nonmixtion</w>": 6055,
      "nonmixness</w>": 6056,
      "nonchoping</w>": 6057,
      "nonchoply</w>": 6058,
      "nonchoped</w>": 6059,
      "nonchopable</w>": 6060,
      "nonchopful</w>": 6061,
      "nonchoper</w>": 6062,
      "nonchopless</w>": 6063,
      "nonchopest</w>": 6064,
      "nonchoption</w>": 6065,
      "nonchopness</w>": 6066,
      "nonmincely</w>": 6067,
      "nonminceed</w>": 6068,
      "nonminceing</w>": 6069,
      "nonminceful</w>": 6070,
      "nonminceest</w>": 6071,
      "nonminceer</w>": 6072,
      "nonmincetion</w>": 6073,
      "nonminceness</w>": 6074,
      "nonminceable</w>": 6075,
      "nonminceless</w>": 6076,
      "nonslicely</w>": 6077,
      "nonsliceed</w>": 6078,
      "nonsliceing</w>": 6079,
      "nonsliceful</w>": 6080,
      "nonsliceest</w>": 6081,
      "nonsliceer</w>": 6082,
      "nonslicetion</w>": 6083,
      "nonsliceness</w>": 6084,
      "nonsliceable</w>": 6085,
      "nonsliceless</w>": 6086,
      "semichoping</w>": 6087,
      "semichoply</w>": 6088,
      "semichoped</w>": 6089,
      "semichopable</w>": 6090,
      "semichopful</w>": 6091,
      "semichoper</w>": 6092,
      "semichopless</w>": 6093,
      "semichopest</w>": 6094,
      "semichoption</w>": 6095,
      "semichopness</w>": 6096,
      "semislicely</w>": 6097,
      "semisliceed</w>": 6098,
      "semisliceing</w>": 6099,
      "semisliceful</w>": 6100,
      "semisliceest</w>": 6101,
      "semisliceer</w>": 6102,
      "semislicetion</w>": 6103,
      "semisliceness</w>": 6104,
      "semisliceable</w>": 6105,
      "semisliceless</w>": 6106,
      "semimixing</w>": 6107,
      "semimixly</w>": 6108,
      "semimixed</w>": 6109,
      "semimixable</w>": 6110,
      "semimixful</w>": 6111,
      "semimixer</w>": 6112,
      "semimixless</w>": 6113,
      "semimixest</w>": 6114,
      "semimixtion</w>": 6115,
      "semimixness</w>": 6116,
      "semimincely</w>": 6117,
      "semiminceed</w>": 6118,
      "semiminceing</w>": 6119,
      "semiminceful</w>": 6120,
      "semiminceest</w>": 6121,
      "semiminceer</w>": 6122,
      "semimincetion</w>": 6123,
      "semiminceness</w>": 6124,
      "semiminceable</w>": 6125,
      "semiminceless</w>": 6126,
      "semigrilling</w>": 6127,
      "semigrillly</w>": 6128,
      "semigrilled</w>": 6129,
      "semigrillable</w>": 6130,
      "semigrillful</w>": 6131,
      "semigriller</w>": 6132,
      "semigrillless</w>": 6133,
      "semigrillest</w>": 6134,
      "semigrilltion</w>": 6135,
      "semigrillness</w>": 6136,
      "microgrilling</w>": 6137,
      "microgrillly</w>": 6138,
      "microgrilled</w>": 6139,
      "microgrillable</w>": 6140,
      "microgrillful</w>": 6141,
      "microgriller</w>": 6142,
      "microgrillless</w>": 6143,
      "microgrillest</w>": 6144,
      "microgrilltion</w>": 6145,
      "microgrillness</w>": 6146,
      "microbakely</w>": 6147,
      "microbakeed</w>": 6148,
      "microbakeing</w>": 6149,
      "microbakeful</w>": 6150,
      "microbakeest</w>": 6151,
      "microbakeer</w>": 6152,
      "microbaketion</w>": 6153,
      "microbakeness</w>": 6154,
      "microbakeable</w>": 6155,
      "microbakeless</w>": 6156,
      "micromixing</w>": 6157,
      "micromixly</w>": 6158,
      "micromixed</w>": 6159,
      "micromixable</w>": 6160,
      "micromixful</w>": 6161,
      "micromixer</w>": 6162,
      "micromixless</w>": 6163,
      "micromixest</w>": 6164,
      "micromixtion</w>": 6165,
      "micromixness</w>": 6166,
      "micromincely</w>": 6167,
      "microminceed</w>": 6168,
      "microminceing</w>": 6169,
      "microminceful</w>": 6170,
      "microminceest</w>": 6171,
      "microminceer</w>": 6172,
      "micromincetion</w>": 6173,
      "microminceness</w>": 6174,
      "microminceable</w>": 6175,
      "microminceless</w>": 6176,
      "microslicely</w>": 6177,
      "microsliceed</w>": 6178,
      "microsliceing</w>": 6179,
      "microsliceful</w>": 6180,
      "microsliceest</w>": 6181,
      "microsliceer</w>": 6182,
      "microslicetion</w>": 6183,
      "microsliceness</w>": 6184,
      "microsliceable</w>": 6185,
      "microsliceless</w>": 6186,
      "ultrameltly</w>": 6187,
      "ultramelter</w>": 6188,
      "ultrameltless</w>": 6189,
      "ultramelting</w>": 6190,
      "ultramelted</w>": 6191,
      "ultramincely</w>": 6192,
      "ultraminceed</w>": 6193,
      "ultraminceing</w>": 6194,
      "ultraminceful</w>": 6195,
      "ultraminceest</w>": 6196,
      "ultraminceer</w>": 6197,
      "ultramincetion</w>": 6198,
      "ultraminceness</w>": 6199,
      "ultraminceable</w>": 6200,
      "ultraminceless</w>": 6201,
      "ultrachoping</w>": 6202,
      "ultrachoply</w>": 6203,
      "ultrachoped</w>": 6204,
      "ultrachopable</w>": 6205,
      "ultrachopful</w>": 6206,
      "ultrachoper</w>": 6207,
      "ultrachopless</w>": 6208,
      "ultrachopest</w>": 6209,
      "ultrachoption</w>": 6210,
      "ultrachopness</w>": 6211,
      "antigrilling</w>": 6212,
      "antigrillly</w>": 6213,
      "antigrilled</w>": 6214,
      "antigrillable</w>": 6215,
      "antigrillful</w>": 6216,
      "antigriller</w>": 6217,
      "antigrillless</w>": 6218,
      "antigrillest</w>": 6219,
      "antigrilltion</w>": 6220,
      "antigrillness</w>": 6221,
      "antibakely</w>": 6222,
      "antibakeed</w>": 6223,
      "antibakeing</w>": 6224,
      "antibakeful</w>": 6225,
      "antibakeest</w>": 6226,
      "antibakeer</w>": 6227,
      "antibaketion</w>": 6228,
      "antibakeness</w>": 6229,
      "antibakeable</w>": 6230,
      "antibakeless</w>": 6231,
      "undergrilling</w>": 6232,
      "undergrillly</w>": 6233,
      "undergrilled</w>": 6234,
      "undergrillable</w>": 6235,
      "undergrillful</w>": 6236,
      "undergriller</w>": 6237,
      "undergrillless</w>": 6238,
      "undergrillest</w>": 6239,
      "undergrilltion</w>": 6240,
      "undergrillness</w>": 6241,
      "underbakely</w>": 6242,
      "underbakeed</w>": 6243,
      "underbakeing</w>": 6244,
      "underbakeful</w>": 6245,
      "underbakeest</w>": 6246,
      "underbakeer</w>": 6247,
      "underbaketion</w>": 6248,
      "underbakeness</w>": 6249,
      "underbakeable</w>": 6250,
      "underbakeless</w>": 6251,
      "underchoping</w>": 6252,
      "underchoply</w>": 6253,
      "underchoped</w>": 6254,
      "underchopable</w>": 6255,
      "underchopful</w>": 6256,
      "underchoper</w>": 6257,
      "underchopless</w>": 6258,
      "underchopest</w>": 6259,
      "underchoption</w>": 6260,
      "underchopness</w>": 6261,
      "underslicely</w>": 6262,
      "undersliceed</w>": 6263,
      "undersliceing</w>": 6264,
      "undersliceful</w>": 6265,
      "undersliceest</w>": 6266,
      "undersliceer</w>": 6267,
      "underslicetion</w>": 6268,
      "undersliceness</w>": 6269,
      "undersliceable</w>": 6270,
      "undersliceless</w>": 6271,
      "multigrilling</w>": 6272,
      "multigrillly</w>": 6273,
      "multigrilled</w>": 6274,
      "multigrillable</w>": 6275,
      "multigrillful</w>": 6276,
      "multigriller</w>": 6277,
      "multigrillless</w>": 6278,
      "multigrillest</w>": 6279,
      "multigrilltion</w>": 6280,
      "multigrillness</w>": 6281,
      "multibakely</w>": 6282,
      "multibakeed</w>": 6283,
      "multibakeing</w>": 6284,
      "multibakeful</w>": 6285,
      "multibakeest</w>": 6286,
      "multibakeer</w>": 6287,
      "multibaketion</w>": 6288,
      "multibakeness</w>": 6289,
      "multibakeable</w>": 6290,
      "multibakeless</w>": 6291,
      "antichoping</w>": 6292,
      "antichoply</w>": 6293,
      "antichoped</w>": 6294,
      "antichopable</w>": 6295,
      "antichopful</w>": 6296,
      "antichoper</w>": 6297,
      "antichopless</w>": 6298,
      "antichopest</w>": 6299,
      "antichoption</w>": 6300,
      "antichopness</w>": 6301,
      "antislicely</w>": 6302,
      "antisliceed</w>": 6303,
      "antisliceing</w>": 6304,
      "antisliceful</w>": 6305,
      "antisliceest</w>": 6306,
      "antisliceer</w>": 6307,
      "antislicetion</w>": 6308,
      "antisliceness</w>": 6309,
      "antisliceable</w>": 6310,
      "antisliceless</w>": 6311,
      "antimixing</w>": 6312,
      "antimixly</w>": 6313,
      "antimixed</w>": 6314,
      "antimixable</w>": 6315,
      "antimixful</w>": 6316,
      "antimixer</w>": 6317,
      "antimixless</w>": 6318,
      "antimixest</w>": 6319,
      "antimixtion</w>": 6320,
      "antimixness</w>": 6321,
      "antimincely</w>": 6322,
      "antiminceed</w>": 6323,
      "antiminceing</w>": 6324,
      "antiminceful</w>": 6325,
      "antiminceest</w>": 6326,
      "antiminceer</w>": 6327,
      "antimincetion</w>": 6328,
      "antiminceness</w>": 6329,
      "antiminceable</w>": 6330,
      "antiminceless</w>": 6331,
      "multichoping</w>": 6332,
      "multichoply</w>": 6333,
      "multichoped</w>": 6334,
      "multichopable</w>": 6335,
      "multichopful</w>": 6336,
      "multichoper</w>": 6337,
      "multichopless</w>": 6338,
      "multichopest</w>": 6339,
      "multichoption</w>": 6340,
      "multichopness</w>": 6341,
      "multislicely</w>": 6342,
      "multisliceed</w>": 6343,
      "multisliceing</w>": 6344,
      "multisliceful</w>": 6345,
      "multisliceest</w>": 6346,
      "multisliceer</w>": 6347,
      "multislicetion</w>": 6348,
      "multisliceness</w>": 6349,
      "multisliceable</w>": 6350,
      "multisliceless</w>": 6351,
      "multimixing</w>": 6352,
      "multimixly</w>": 6353,
      "multimixed</w>": 6354,
      "multimixable</w>": 6355,
      "multimixful</w>": 6356,
      "multimixer</w>": 6357,
      "multimixless</w>": 6358,
      "multimixest</w>": 6359,
      "multimixtion</w>": 6360,
      "multimixness</w>": 6361,
      "multimincely</w>": 6362,
      "multiminceed</w>": 6363,
      "multiminceing</w>": 6364,
      "multiminceful</w>": 6365,
      "multiminceest</w>": 6366,
      "multiminceer</w>": 6367,
      "multimincetion</w>": 6368,
      "multiminceness</w>": 6369,
      "multiminceable</w>": 6370,
      "multiminceless</w>": 6371,
      "minibakely</w>": 6372,
      "minibakeed</w>": 6373,
      "minibakeing</w>": 6374,
      "minibakeful</w>": 6375,
      "minibakeest</w>": 6376,
      "minibakeer</w>": 6377,
      "minibaketion</w>": 6378,
      "minibakeness</w>": 6379,
      "minibakeable</w>": 6380,
      "minibakeless</w>": 6381,
      "semibakely</w>": 6382,
      "semibakeed</w>": 6383,
      "semibakeing</w>": 6384,
      "semibakeful</w>": 6385,
      "semibakeest</w>": 6386,
      "semibakeer</w>": 6387,
      "semibaketion</w>": 6388,
      "semibakeness</w>": 6389,
      "semibakeable</w>": 6390,
      "semibakeless</w>": 6391,
      "megachoping</w>": 6392,
      "megachoply</w>": 6393,
      "megachoped</w>": 6394,
      "megachopable</w>": 6395,
      "megachopful</w>": 6396,
      "megachoper</w>": 6397,
      "megachopless</w>": 6398,
      "megachopest</w>": 6399,
      "megachoption</w>": 6400,
      "megachopness</w>": 6401,
      "regrilling</w>": 6402,
      "regrillly</w>": 6403,
      "regrilled</w>": 6404,
      "regrillable</w>": 6405,
      "regrillful</w>": 6406,
      "regriller</w>": 6407,
      "regrillless</w>": 6408,
      "regrillest</w>": 6409,
      "regrilltion</w>": 6410,
      "regrillness</w>": 6411,
      "remixing</w>": 6412,
      "remixly</w>": 6413,
      "remixed</w>": 6414,
      "remixable</w>": 6415,
      "remixful</w>": 6416,
      "remixer</w>": 6417,
      "remixless</w>": 6418,
      "remixest</w>": 6419,
      "remixtion</w>": 6420,
      "remixness</w>": 6421,
      "remincely</w>": 6422,
      "reminceed</w>": 6423,
      "reminceing</w>": 6424,
      "reminceful</w>": 6425,
      "reminceest</w>": 6426,
      "reminceer</w>": 6427,
      "remincetion</w>": 6428,
      "reminceness</w>": 6429,
      "reminceable</w>": 6430,
      "reminceless</w>": 6431,
      "undermixing</w>": 6432,
      "undermixly</w>": 6433,
      "undermixed</w>": 6434,
      "undermixable</w>": 6435,
      "undermixful</w>": 6436,
      "undermixer</w>": 6437,
      "undermixless</w>": 6438,
      "undermixest</w>": 6439,
      "undermixtion</w>": 6440,
      "undermixness</w>": 6441,
      "undermincely</w>": 6442,
      "underminceed</w>": 6443,
      "underminceing</w>": 6444,
      "underminceful</w>": 6445,
      "underminceest</w>": 6446,
      "underminceer</w>": 6447,
      "undermincetion</w>": 6448,
      "underminceness</w>": 6449,
      "underminceable</w>": 6450,
      "underminceless</w>": 6451,
      "megaslicely</w>": 6452,
      "megasliceed</w>": 6453,
      "megasliceing</w>": 6454,
      "megasliceful</w>": 6455,
      "megasliceest</w>": 6456,
      "megasliceer</w>": 6457,
      "megaslicetion</w>": 6458,
      "megasliceness</w>": 6459,
      "megasliceable</w>": 6460,
      "megasliceless</w>": 6461,
      "ultraslicely</w>": 6462,
      "ultrasliceed</w>": 6463,
      "ultrasliceing</w>": 6464,
      "ultrasliceful</w>": 6465,
      "ultrasliceest</w>": 6466,
      "ultrasliceer</w>": 6467,
      "ultraslicetion</w>": 6468,
      "ultrasliceness</w>": 6469,
      "ultrasliceable</w>": 6470,
      "ultrasliceless</w>": 6471,
      "rechoping</w>": 6472,
      "rechoply</w>": 6473,
      "rechoped</w>": 6474,
      "rechopable</w>": 6475,
      "rechopful</w>": 6476,
      "rechoper</w>": 6477,
      "rechopless</w>": 6478,
      "rechopest</w>": 6479,
      "rechoption</w>": 6480,
      "rechopness</w>": 6481,
      "microchoping</w>": 6482,
      "microchoply</w>": 6483,
      "microchoped</w>": 6484,
      "microchopable</w>": 6485,
      "microchopful</w>": 6486,
      "microchoper</w>": 6487,
      "microchopless</w>": 6488,
      "microchopest</w>": 6489,
      "microchoption</w>": 6490,
      "microchopness</w>": 6491,
      "microwhiping</w>": 6492,
      "microwhiply</w>": 6493,
      "microwhiped</w>": 6494,
      "microwhipable</w>": 6495,
      "microwhipful</w>": 6496,
      "microwhiper</w>": 6497,
      "microwhipless</w>": 6498,
      "microwhipest</w>": 6499,
      "microwhiption</w>": 6500,
      "microwhipness</w>": 6501,
      "predicely</w>": 6502,
      "prediceed</w>": 6503,
      "prediceing</w>": 6504,
      "prediceful</w>": 6505,
      "prediceest</w>": 6506,
      "prediceer</w>": 6507,
      "predicetion</w>": 6508,
      "prediceness</w>": 6509,
      "prediceable</w>": 6510,
      "prediceless</w>": 6511,
      "prosteaming</w>": 6512,
      "prosteamly</w>": 6513,
      "prosteamed</w>": 6514,
      "prosteamable</w>": 6515,
      "prosteamful</w>": 6516,
      "prosteamless</w>": 6517,
      "prosteamest</w>": 6518,
      "prosteamtion</w>": 6519,
      "prosteamness</w>": 6520,
      "prefryly</w>": 6521,
      "prefryed</w>": 6522,
      "prefryable</w>": 6523,
      "prefryful</w>": 6524,
      "prefryer</w>": 6525,
      "prefryless</w>": 6526,
      "prefryest</w>": 6527,
      "prefrytion</w>": 6528,
      "prefryness</w>": 6529,
      "refryly</w>": 6530,
      "refryed</w>": 6531,
      "refryable</w>": 6532,
      "refryful</w>": 6533,
      "refryer</w>": 6534,
      "refryless</w>": 6535,
      "refryest</w>": 6536,
      "refrytion</w>": 6537,
      "refryness</w>": 6538,
      "profryly</w>": 6539,
      "profryed</w>": 6540,
      "profryable</w>": 6541,
      "profryful</w>": 6542,
      "profryer</w>": 6543,
      "profryless</w>": 6544,
      "profryest</w>": 6545,
      "profrytion</w>": 6546,
      "profryness</w>": 6547,
      "ministeaming</w>": 6548,
      "ministeamly</w>": 6549,
      "ministeamed</w>": 6550,
      "ministeamable</w>": 6551,
      "ministeamful</w>": 6552,
      "ministeamless</w>": 6553,
      "ministeamest</w>": 6554,
      "ministeamtion</w>": 6555,
      "ministeamness</w>": 6556,
      "oversteaming</w>": 6557,
      "oversteamly</w>": 6558,
      "oversteamed</w>": 6559,
      "oversteamable</w>": 6560,
      "oversteamful</w>": 6561,
      "oversteamless</w>": 6562,
      "oversteamest</w>": 6563,
      "oversteamtion</w>": 6564,
      "oversteamness</w>": 6565,
      "unfryly</w>": 6566,
      "unfryed</w>": 6567,
      "unfryable</w>": 6568,
      "unfryful</w>": 6569,
      "unfryer</w>": 6570,
      "unfryless</w>": 6571,
      "unfryest</w>": 6572,
      "unfrytion</w>": 6573,
      "unfryness</w>": 6574,
      "unsteaming</w>": 6575,
      "unsteamly</w>": 6576,
      "unsteamed</w>": 6577,
      "unsteamable</w>": 6578,
      "unsteamful</w>": 6579,
      "unsteamless</w>": 6580,
      "unsteamest</w>": 6581,
      "unsteamtion</w>": 6582,
      "unsteamness</w>": 6583,
      "nonfryly</w>": 6584,
      "nonfryed</w>": 6585,
      "nonfryable</w>": 6586,
      "nonfryful</w>": 6587,
      "nonfryer</w>": 6588,
      "nonfryless</w>": 6589,
      "nonfryest</w>": 6590,
      "nonfrytion</w>": 6591,
      "nonfryness</w>": 6592,
      "nonsteaming</w>": 6593,
      "nonsteamly</w>": 6594,
      "nonsteamed</w>": 6595,
      "nonsteamable</w>": 6596,
      "nonsteamful</w>": 6597,
      "nonsteamless</w>": 6598,
      "nonsteamest</w>": 6599,
      "nonsteamtion</w>": 6600,
      "nonsteamness</w>": 6601,
      "semisteaming</w>": 6602,
      "semisteamly</w>": 6603,
      "semisteamed</w>": 6604,
      "semisteamable</w>": 6605,
      "semisteamful</w>": 6606,
      "semisteamless</w>": 6607,
      "semisteamest</w>": 6608,
      "semisteamtion</w>": 6609,
      "semisteamness</w>": 6610,
      "microfryly</w>": 6611,
      "microfryed</w>": 6612,
      "microfryable</w>": 6613,
      "microfryful</w>": 6614,
      "microfryer</w>": 6615,
      "microfryless</w>": 6616,
      "microfryest</w>": 6617,
      "microfrytion</w>": 6618,
      "microfryness</w>": 6619,
      "microsteaming</w>": 6620,
      "microsteamly</w>": 6621,
      "microsteamed</w>": 6622,
      "microsteamable</w>": 6623,
      "microsteamful</w>": 6624,
      "microsteamless</w>": 6625,
      "microsteamest</w>": 6626,
      "microsteamtion</w>": 6627,
      "microsteamness</w>": 6628,
      "antifryly</w>": 6629,
      "antifryed</w>": 6630,
      "antifryable</w>": 6631,
      "antifryful</w>": 6632,
      "antifryer</w>": 6633,
      "antifryless</w>": 6634,
      "antifryest</w>": 6635,
      "antifrytion</w>": 6636,
      "antifryness</w>": 6637,
      "multifryly</w>": 6638,
      "multifryed</w>": 6639,
      "multifryable</w>": 6640,
      "multifryful</w>": 6641,
      "multifryer</w>": 6642,
      "multifryless</w>": 6643,
      "multifryest</w>": 6644,
      "multifrytion</w>": 6645,
      "multifryness</w>": 6646,
      "antisteaming</w>": 6647,
      "antisteamly</w>": 6648,
      "antisteamed</w>": 6649,
      "antisteamable</w>": 6650,
      "antisteamful</w>": 6651,
      "antisteamless</w>": 6652,
      "antisteamest</w>": 6653,
      "antisteamtion</w>": 6654,
      "antisteamness</w>": 6655,
      "multisteaming</w>": 6656,
      "multisteamly</w>": 6657,
      "multisteamed</w>": 6658,
      "multisteamable</w>": 6659,
      "multisteamful</w>": 6660,
      "multisteamless</w>": 6661,
      "multisteamest</w>": 6662,
      "multisteamtion</w>": 6663,
      "multisteamness</w>": 6664,
      "megabrowning</w>": 6665,
      "megabrownly</w>": 6666,
      "megabrownable</w>": 6667,
      "megabrownful</w>": 6668,
      "megabrowner</w>": 6669,
      "megabrownless</w>": 6670,
      "megabrownest</w>": 6671,
      "megabrowntion</w>": 6672,
      "megabrownness</w>": 6673,
      "ultrabrowning</w>": 6674,
      "ultrabrownly</w>": 6675,
      "ultrabrownable</w>": 6676,
      "ultrabrownful</w>": 6677,
      "ultrabrowner</w>": 6678,
      "ultrabrownless</w>": 6679,
      "ultrabrownest</w>": 6680,
      "ultrabrowntion</w>": 6681,
      "ultrabrownness</w>": 6682,
      "resteaming</w>": 6683,
      "resteamly</w>": 6684,
      "resteamed</w>": 6685,
      "resteamable</w>": 6686,
      "resteamful</w>": 6687,
      "resteamless</w>": 6688,
      "resteamest</w>": 6689,
      "resteamtion</w>": 6690,
      "resteamness</w>": 6691,
      "minifryly</w>": 6692,
      "minifryed</w>": 6693,
      "minifryable</w>": 6694,
      "minifryful</w>": 6695,
      "minifryer</w>": 6696,
      "minifryless</w>": 6697,
      "minifryest</w>": 6698,
      "minifrytion</w>": 6699,
      "minifryness</w>": 6700,
      "semifryly</w>": 6701,
      "semifryed</w>": 6702,
      "semifryable</w>": 6703,
      "semifryful</w>": 6704,
      "semifryer</w>": 6705,
      "semifryless</w>": 6706,
      "semifryest</w>": 6707,
      "semifrytion</w>": 6708,
      "semifryness</w>": 6709,
      "minibrowning</w>": 6710,
      "minibrownly</w>": 6711,
      "minibrownable</w>": 6712,
      "minibrownful</w>": 6713,
      "minibrowner</w>": 6714,
      "minibrownless</w>": 6715,
      "minibrownest</w>": 6716,
      "minibrowntion</w>": 6717,
      "minibrownness</w>": 6718,
      "semibrowning</w>": 6719,
      "semibrownly</w>": 6720,
      "semibrownable</w>": 6721,
      "semibrownful</w>": 6722,
      "semibrowner</w>": 6723,
      "semibrownless</w>": 6724,
      "semibrownest</w>": 6725,
      "semibrowntion</w>": 6726,
      "semibrownness</w>": 6727,
      "understeaming</w>": 6728,
      "understeamly</w>": 6729,
      "understeamed</w>": 6730,
      "understeamable</w>": 6731,
      "understeamful</w>": 6732,
      "understeamless</w>": 6733,
      "understeamest</w>": 6734,
      "understeamtion</w>": 6735,
      "understeamness</w>": 6736,
      "underfryly</w>": 6737,
      "underfryed</w>": 6738,
      "underfryable</w>": 6739,
      "underfryful</w>": 6740,
      "underfryer</w>": 6741,
      "underfryless</w>": 6742,
      "underfryest</w>": 6743,
      "underfrytion</w>": 6744,
      "underfryness</w>": 6745,
      "overfryly</w>": 6746,
      "overfryed</w>": 6747,
      "overfryable</w>": 6748,
      "overfryful</w>": 6749,
      "overfryer</w>": 6750,
      "overfryless</w>": 6751,
      "overfryest</w>": 6752,
      "overfrytion</w>": 6753,
      "overfryness</w>": 6754,
      "presteaming</w>": 6755,
      "presteamly</w>": 6756,
      "presteamed</w>": 6757,
      "presteamable</w>": 6758,
      "presteamful</w>": 6759,
      "presteamless</w>": 6760,
      "presteamest</w>": 6761,
      "presteamtion</w>": 6762,
      "presteamness</w>": 6763,
      "procookly</w>": 6764,
      "procookable</w>": 6765,
      "procookful</w>": 6766,
      "procooker</w>": 6767,
      "procookless</w>": 6768,
      "procookest</w>": 6769,
      "procooktion</w>": 6770,
      "procookness</w>": 6771,
      "minicookly</w>": 6772,
      "minicookable</w>": 6773,
      "minicookful</w>": 6774,
      "minicooker</w>": 6775,
      "minicookless</w>": 6776,
      "minicookest</w>": 6777,
      "minicooktion</w>": 6778,
      "minicookness</w>": 6779,
      "precookly</w>": 6780,
      "precookable</w>": 6781,
      "precookful</w>": 6782,
      "precooker</w>": 6783,
      "precookless</w>": 6784,
      "precookest</w>": 6785,
      "precooktion</w>": 6786,
      "precookness</w>": 6787,
      "overcookly</w>": 6788,
      "overcookable</w>": 6789,
      "overcookful</w>": 6790,
      "overcooker</w>": 6791,
      "overcookless</w>": 6792,
      "overcookest</w>": 6793,
      "overcooktion</w>": 6794,
      "overcookness</w>": 6795,
      "uncookly</w>": 6796,
      "uncookable</w>": 6797,
      "uncookful</w>": 6798,
      "uncooker</w>": 6799,
      "uncookless</w>": 6800,
      "uncookest</w>": 6801,
      "uncooktion</w>": 6802,
      "uncookness</w>": 6803,
      "noncookly</w>": 6804,
      "noncookable</w>": 6805,
      "noncookful</w>": 6806,
      "noncooker</w>": 6807,
      "noncookless</w>": 6808,
      "noncookest</w>": 6809,
      "noncooktion</w>": 6810,
      "noncookness</w>": 6811,
      "semicookly</w>": 6812,
      "semicookable</w>": 6813,
      "semicookful</w>": 6814,
      "semicooker</w>": 6815,
      "semicookless</w>": 6816,
      "semicookest</w>": 6817,
      "semicooktion</w>": 6818,
      "semicookness</w>": 6819,
      "undercookly</w>": 6820,
      "undercookable</w>": 6821,
      "undercookful</w>": 6822,
      "undercooker</w>": 6823,
      "undercookless</w>": 6824,
      "undercookest</w>": 6825,
      "undercooktion</w>": 6826,
      "undercookness</w>": 6827,
      "anticookly</w>": 6828,
      "anticookable</w>": 6829,
      "anticookful</w>": 6830,
      "anticooker</w>": 6831,
      "anticookless</w>": 6832,
      "anticookest</w>": 6833,
      "anticooktion</w>": 6834,
      "anticookness</w>": 6835,
      "multicookly</w>": 6836,
      "multicookable</w>": 6837,
      "multicookful</w>": 6838,
      "multicooker</w>": 6839,
      "multicookless</w>": 6840,
      "multicookest</w>": 6841,
      "multicooktion</w>": 6842,
      "multicookness</w>": 6843,
      "recookly</w>": 6844,
      "recookable</w>": 6845,
      "recookful</w>": 6846,
      "recooker</w>": 6847,
      "recookless</w>": 6848,
      "recookest</w>": 6849,
      "recooktion</w>": 6850,
      "recookness</w>": 6851,
      "microcookly</w>": 6852,
      "microcookable</w>": 6853,
      "microcookful</w>": 6854,
      "microcooker</w>": 6855,
      "microcookless</w>": 6856,
      "microcookest</w>": 6857,
      "microcooktion</w>": 6858,
      "microcookness</w>": 6859,
      "profolded</w>": 6860,
      "profoldable</w>": 6861,
      "profoldful</w>": 6862,
      "profoldless</w>": 6863,
      "profoldest</w>": 6864,
      "profoldtion</w>": 6865,
      "profoldness</w>": 6866,
      "miniboilly</w>": 6867,
      "miniboiled</w>": 6868,
      "miniboilful</w>": 6869,
      "miniboiler</w>": 6870,
      "miniboilest</w>": 6871,
      "miniboiltion</w>": 6872,
      "miniboilness</w>": 6873,
      "semiboilly</w>": 6874,
      "semiboiled</w>": 6875,
      "semiboilful</w>": 6876,
      "semiboiler</w>": 6877,
      "semiboilest</w>": 6878,
      "semiboiltion</w>": 6879,
      "semiboilness</w>": 6880,
      "superfolded</w>": 6881,
      "superfoldable</w>": 6882,
      "superfoldful</w>": 6883,
      "superfoldless</w>": 6884,
      "superfoldest</w>": 6885,
      "superfoldtion</w>": 6886,
      "superfoldness</w>": 6887,
      "underfolded</w>": 6888,
      "underfoldable</w>": 6889,
      "underfoldful</w>": 6890,
      "underfoldless</w>": 6891,
      "underfoldest</w>": 6892,
      "underfoldtion</w>": 6893,
      "underfoldness</w>": 6894,
      "overfolded</w>": 6895,
      "overfoldable</w>": 6896,
      "overfoldful</w>": 6897,
      "overfoldless</w>": 6898,
      "overfoldest</w>": 6899,
      "overfoldtion</w>": 6900,
      "overfoldness</w>": 6901,
      "reroastable</w>": 6902,
      "reroastful</w>": 6903,
      "reroastless</w>": 6904,
      "reroastest</w>": 6905,
      "reroasttion</w>": 6906,
      "reroastness</w>": 6907,
      "prostirly</w>": 6908,
      "prostirable</w>": 6909,
      "prostirful</w>": 6910,
      "prostirless</w>": 6911,
      "prostirtion</w>": 6912,
      "prostirness</w>": 6913,
      "prosearly</w>": 6914,
      "prosearable</w>": 6915,
      "prosearful</w>": 6916,
      "prosearless</w>": 6917,
      "proseartion</w>": 6918,
      "prosearness</w>": 6919,
      "restirly</w>": 6920,
      "restirable</w>": 6921,
      "restirful</w>": 6922,
      "restirless</w>": 6923,
[...]
